{
  "version": "1.0",
  "truncation": null,
  "padding": null,
  "added_tokens": [
    {
      "id": 0,
      "content": "[PAD]",
      "single_word": false,
      "lstrip": false,
      "rstrip": false,
      "normalized": false,
      "special": true
    },
    {
      "id": 1,
      "content": "[UNK]",
      "single_word": false,
      "lstrip": false,
      "rstrip": false,
      "normalized": false,
      "special": true
    },
    {
      "id": 2,
      "content": "[CLS]",
      "single_word": false,
      "lstrip": false,
      "rstrip": false,
      "normalized": false,
      "special": true
    },
    {
      "id": 3,
      "content": "[SEP]",
      "single_word": false,
      "lstrip": false,
      "rstrip": false,
      "normalized": false,
      "special": true
    },
    {
      "id": 4,
      "content": "[MASK]",
      "single_word": false,
      "lstrip": false,
      "rstrip": false,
      "normalized": false,
      "special": true
    }
  ],
  "normalizer": {
    "type": "NFKC"
  },
  "pre_tokenizer": {
    "type": "Whitespace"
  },
  "post_processor": {
    "type": "TemplateProcessing",
    "single": [
      {
        "SpecialToken": {
          "id": "[CLS]",
          "type_id": 0
        }
      },
      {
        "Sequence": {
          "id": "A",
          "type_id": 0
        }
      },
      {
        "SpecialToken": {
          "id": "[SEP]",
          "type_id": 0
        }
      }
    ],
    "pair": [
      {
        "SpecialToken": {
          "id": "[CLS]",
          "type_id": 0
        }
      },
      {
        "Sequence": {
          "id": "A",
          "type_id": 0
        }
      },
      {
        "SpecialToken": {
          "id": "[SEP]",
          "type_id": 0
        }
      },
      {
        "Sequence": {
          "id": "B",
          "type_id": 1
        }
      },
      {
        "SpecialToken": {
          "id": "[SEP]",
          "type_id": 1
        }
      }
    ],
    "special_tokens": {
      "[CLS]": {
        "id": "[CLS]",
        "ids": [
          2
        ],
        "tokens": [
          "[CLS]"
        ]
      },
      "[SEP]": {
        "id": "[SEP]",
        "ids": [
          3
        ],
        "tokens": [
          "[SEP]"
        ]
      }
    }
  },
  "decoder": null,
  "model": {
    "type": "BPE",
    "dropout": null,
    "unk_token": "[UNK]",
    "continuing_subword_prefix": null,
    "end_of_word_suffix": null,
    "fuse_unk": false,
    "byte_fallback": false,
    "ignore_merges": false,
    "vocab": {
      "[PAD]": 0,
      "[UNK]": 1,
      "[CLS]": 2,
      "[SEP]": 3,
      "[MASK]": 4,
      "!": 5,
      "\"": 6,
      "#": 7,
      "$": 8,
      "%": 9,
      "&": 10,
      "'": 11,
      "(": 12,
      ")": 13,
      "*": 14,
      "+": 15,
      ",": 16,
      "-": 17,
      ".": 18,
      "/": 19,
      "0": 20,
      "1": 21,
      "2": 22,
      "3": 23,
      "4": 24,
      "5": 25,
      "6": 26,
      "7": 27,
      "8": 28,
      "9": 29,
      ":": 30,
      ";": 31,
      "<": 32,
      "=": 33,
      ">": 34,
      "?": 35,
      "@": 36,
      "A": 37,
      "B": 38,
      "C": 39,
      "D": 40,
      "E": 41,
      "F": 42,
      "G": 43,
      "H": 44,
      "I": 45,
      "J": 46,
      "K": 47,
      "L": 48,
      "M": 49,
      "N": 50,
      "O": 51,
      "P": 52,
      "Q": 53,
      "R": 54,
      "S": 55,
      "T": 56,
      "U": 57,
      "V": 58,
      "W": 59,
      "X": 60,
      "Y": 61,
      "Z": 62,
      "[": 63,
      "\\": 64,
      "]": 65,
      "^": 66,
      "_": 67,
      "`": 68,
      "a": 69,
      "b": 70,
      "c": 71,
      "d": 72,
      "e": 73,
      "f": 74,
      "g": 75,
      "h": 76,
      "i": 77,
      "j": 78,
      "k": 79,
      "l": 80,
      "m": 81,
      "n": 82,
      "o": 83,
      "p": 84,
      "q": 85,
      "r": 86,
      "s": 87,
      "t": 88,
      "u": 89,
      "v": 90,
      "w": 91,
      "x": 92,
      "y": 93,
      "z": 94,
      "{": 95,
      "|": 96,
      "}": 97,
      "~": 98,
      "he": 99,
      "in": 100,
      "an": 101,
      "the": 102,
      "er": 103,
      "on": 104,
      "re": 105,
      "at": 106,
      "ed": 107,
      "en": 108,
      "to": 109,
      "st": 110,
      "or": 111,
      "ing": 112,
      "ar": 113,
      "al": 114,
      "th": 115,
      "ou": 116,
      "is": 117,
      "as": 118,
      "and": 119,
      "of": 120,
      "es": 121,
      "it": 122,
      "ic": 123,
      "le": 124,
      "om": 125,
      "il": 126,
      "id": 127,
      "be": 128,
      "ion": 129,
      "se": 130,
      "ac": 131,
      "ent": 132,
      "ve": 133,
      "ad": 134,
      "ay": 135,
      "for": 136,
      "ol": 137,
      "am": 138,
      "ow": 139,
      "ly": 140,
      "im": 141,
      "ch": 142,
      "ig": 143,
      "ur": 144,
      "ir": 145,
      "ot": 146,
      "ter": 147,
      "was": 148,
      "The": 149,
      "ver": 150,
      "wh": 151,
      "un": 152,
      "ro": 153,
      "that": 154,
      "ut": 155,
      "ag": 156,
      "el": 157,
      "wi": 158,
      "ri": 159,
      "sa": 160,
      "ha": 161,
      "with": 162,
      "ill": 163,
      "are": 164,
      "ce": 165,
      "et": 166,
      "us": 167,
      "his": 168,
      "ld": 169,
      "de": 170,
      "ear": 171,
      "ab": 172,
      "con": 173,
      "ers": 174,
      "ation": 175,
      "said": 176,
      "li": 177,
      "op": 178,
      "oun": 179,
      "mo": 180,
      "res": 181,
      "fr": 182,
      "ne": 183,
      "lo": 184,
      "out": 185,
      "ul": 186,
      "our": 187,
      "igh": 188,
      "ap": 189,
      "com": 190,
      "all": 191,
      "her": 192,
      "ain": 193,
      "ke": 194,
      "sh": 195,
      "ct": 196,
      "ther": 197,
      "by": 198,
      "we": 199,
      "em": 200,
      "pe": 201,
      "su": 202,
      "tr": 203,
      "has": 204,
      "from": 205,
      "pl": 206,
      "have": 207,
      "af": 208,
      "one": 209,
      "ast": 210,
      "day": 211,
      "ate": 212,
      "ight": 213,
      "ex": 214,
      "art": 215,
      "00": 216,
      "so": 217,
      "man": 218,
      "ant": 219,
      "est": 220,
      "di": 221,
      "po": 222,
      "who": 223,
      "year": 224,
      "ould": 225,
      "pro": 226,
      "ort": 227,
      "end": 228,
      "ack": 229,
      "ment": 230,
      "fe": 231,
      "up": 232,
      "not": 233,
      "ess": 234,
      "gh": 235,
      "whe": 236,
      "over": 237,
      "cl": 238,
      "ity": 239,
      "ist": 240,
      "had": 241,
      "own": 242,
      "ere": 243,
      "ice": 244,
      "ust": 245,
      "but": 246,
      "ak": 247,
      "ard": 248,
      "od": 249,
      "wor": 250,
      "after": 251,
      "au": 252,
      "pr": 253,
      "per": 254,
      "she": 255,
      "been": 256,
      "ome": 257,
      "ive": 258,
      "their": 259,
      "were": 260,
      "gr": 261,
      "ound": 262,
      "ide": 263,
      "they": 264,
      "red": 265,
      "off": 266,
      "qu": 267,
      "tor": 268,
      "port": 269,
      "ge": 270,
      "do": 271,
      "this": 272,
      "te": 273,
      "ich": 274,
      "20": 275,
      "will": 276,
      "der": 277,
      "cr": 278,
      "ber": 279,
      "ies": 280,
      "ok": 281,
      "bo": 282,
      "ial": 283,
      "fo": 284,
      "sp": 285,
      "um": 286,
      "go": 287,
      "tim": 288,
      "ev": 289,
      "ough": 290,
      "act": 291,
      "if": 292,
      "In": 293,
      "ong": 294,
      "ous": 295,
      "ell": 296,
      "me": 297,
      "ine": 298,
      "ding": 299,
      "age": 300,
      "ck": 301,
      "It": 302,
      "which": 303,
      "aw": 304,
      "ie": 305,
      "He": 306,
      "bl": 307,
      "ia": 308,
      "ail": 309,
      "ans": 310,
      "br": 311,
      "wo": 312,
      "no": 313,
      "can": 314,
      "ep": 315,
      "old": 316,
      "iv": 317,
      "av": 318,
      "201": 319,
      "co": 320,
      "ary": 321,
      "che": 322,
      "ace": 323,
      "ts": 324,
      "Ch": 325,
      "ame": 326,
      "ated": 327,
      "mer": 328,
      "when": 329,
      "now": 330,
      "ren": 331,
      "more": 332,
      "its": 333,
      "oll": 334,
      "ally": 335,
      "about": 336,
      "ass": 337,
      "ho": 338,
      "ile": 339,
      "An": 340,
      "other": 341,
      "att": 342,
      "ake": 343,
      "him": 344,
      "dis": 345,
      ".'": 346,
      "you": 347,
      "fir": 348,
      "ite": 349,
      "ident": 350,
      "ind": 351,
      "ue": 352,
      "would": 353,
      "new": 354,
      "cor": 355,
      "ople": 356,
      "cent": 357,
      "ree": 358,
      "ence": 359,
      "ff": 360,
      "ions": 361,
      "ict": 362,
      "say": 363,
      "pol": 364,
      "ud": 365,
      "work": 366,
      "Br": 367,
      "any": 368,
      "mon": 369,
      ",\"": 370,
      "two": 371,
      "cre": 372,
      "also": 373,
      "pp": 374,
      "ign": 375,
      "part": 376,
      "than": 377,
      "people": 378,
      "str": 379,
      "very": 380,
      "ick": 381,
      "ark": 382,
      "comp": 383,
      "St": 384,
      "ss": 385,
      "time": 386,
      "get": 387,
      "ure": 388,
      "into": 389,
      "some": 390,
      "able": 391,
      "pres": 392,
      "ian": 393,
      "fore": 394,
      "ish": 395,
      "just": 396,
      "med": 397,
      "coun": 398,
      "ek": 399,
      "my": 400,
      "land": 401,
      "told": 402,
      "last": 403,
      "ild": 404,
      "ip": 405,
      "ser": 406,
      "Mr": 407,
      "air": 408,
      "them": 409,
      "ach": 410,
      "ted": 411,
      "down": 412,
      "years": 413,
      "play": 414,
      "pre": 415,
      "cont": 416,
      "But": 417,
      "ang": 418,
      "son": 419,
      ".\"": 420,
      "ath": 421,
      "ew": 422,
      "thing": 423,
      "way": 424,
      "ning": 425,
      "amp": 426,
      "first": 427,
      "ty": 428,
      "like": 429,
      "back": 430,
      "could": 431,
      "ble": 432,
      "ade": 433,
      "car": 434,
      "ry": 435,
      "We": 436,
      "ance": 437,
      "ting": 438,
      "don": 439,
      "ug": 440,
      "ire": 441,
      "ved": 442,
      "leg": 443,
      "cau": 444,
      "ft": 445,
      "ll": 446,
      "min": 447,
      "dr": 448,
      "19": 449,
      "there": 450,
      "Th": 451,
      "iss": 452,
      "Un": 453,
      "report": 454,
      "hel": 455,
      "fam": 456,
      "ens": 457,
      "ink": 458,
      "ase": 459,
      "ater": 460,
      "ving": 461,
      "used": 462,
      "ra": 463,
      "ily": 464,
      "iz": 465,
      "week": 466,
      "--": 467,
      "inter": 468,
      "ton": 469,
      "before": 470,
      "fl": 471,
      "again": 472,
      "being": 473,
      "clu": 474,
      "ations": 475,
      "show": 476,
      "ical": 477,
      "enc": 478,
      "urn": 479,
      "ob": 480,
      "cause": 481,
      "what": 482,
      "des": 483,
      "ful": 484,
      "app": 485,
      "uring": 486,
      "offic": 487,
      "where": 488,
      "New": 489,
      "most": 490,
      "side": 491,
      "child": 492,
      "ious": 493,
      "home": 494,
      "She": 495,
      "fin": 496,
      "call": 497,
      "ates": 498,
      "000": 499,
      "spe": 500,
      "try": 501,
      "right": 502,
      "cond": 503,
      "ition": 504,
      ",'": 505,
      "sc": 506,
      "cho": 507,
      "under": 508,
      "wom": 509,
      "tri": 510,
      "found": 511,
      "sur": 512,
      "police": 513,
      "cur": 514,
      "sel": 515,
      "ited": 516,
      "left": 517,
      "ph": 518,
      "thr": 519,
      "ction": 520,
      "month": 521,
      "ann": 522,
      "int": 523,
      "did": 524,
      "ash": 525,
      "rem": 526,
      "reat": 527,
      "ave": 528,
      "three": 529,
      "oup": 530,
      "ubl": 531,
      "200": 532,
      "look": 533,
      "ince": 534,
      "illion": 535,
      "ress": 536,
      "while": 537,
      "ured": 538,
      "vers": 539,
      "hed": 540,
      "ES": 541,
      "char": 542,
      "how": 543,
      "add": 544,
      "anc": 545,
      "als": 546,
      "head": 547,
      "sto": 548,
      "ED": 549,
      "aking": 550,
      "because": 551,
      "ult": 552,
      "ating": 553,
      "only": 554,
      "aim": 555,
      "ents": 556,
      "ef": 557,
      "want": 558,
      "Fr": 559,
      "cted": 560,
      "bet": 561,
      "Le": 562,
      "EST": 563,
      "gu": 564,
      "come": 565,
      "cer": 566,
      "vis": 567,
      "Ro": 568,
      "ational": 569,
      "pt": 570,
      "made": 571,
      "vide": 572,
      "And": 573,
      "set": 574,
      "bu": 575,
      "By": 576,
      "against": 577,
      "cess": 578,
      "form": 579,
      "led": 580,
      "Mar": 581,
      "family": 582,
      "lead": 583,
      "ourt": 584,
      "Ar": 585,
      "during": 586,
      "vic": 587,
      "ose": 588,
      "pict": 589,
      "pos": 590,
      "rest": 591,
      "comm": 592,
      "og": 593,
      "ret": 594,
      "then": 595,
      "cording": 596,
      "riend": 597,
      "az": 598,
      "kill": 599,
      "ced": 600,
      "..": 601,
      "reg": 602,
      "ves": 603,
      "read": 604,
      "ities": 605,
      "overn": 606,
      "ublic": 607,
      "Al": 608,
      "through": 609,
      "atch": 610,
      "alk": 611,
      "friend": 612,
      "ise": 613,
      "though": 614,
      "ouse": 615,
      "claim": 616,
      "De": 617,
      "ven": 618,
      "ital": 619,
      "Wh": 620,
      "even": 621,
      "du": 622,
      "world": 623,
      "help": 624,
      "life": 625,
      "10": 626,
      "ever": 627,
      "long": 628,
      "ote": 629,
      "fi": 630,
      "wr": 631,
      "ters": 632,
      "many": 633,
      "ank": 634,
      "cover": 635,
      "ather": 636,
      "ased": 637,
      "well": 638,
      "dec": 639,
      "ons": 640,
      "million": 641,
      "cle": 642,
      "En": 643,
      "ope": 644,
      "vie": 645,
      "ors": 646,
      "video": 647,
      "ster": 648,
      "cial": 649,
      "around": 650,
      "Jo": 651,
      "cap": 652,
      "They": 653,
      "put": 654,
      "win": 655,
      "Brit": 656,
      "sl": 657,
      "chool": 658,
      "says": 659,
      "ask": 660,
      "clo": 661,
      "2013": 662,
      "every": 663,
      "ner": 664,
      "ger": 665,
      "team": 666,
      "rel": 667,
      "esday": 668,
      "inclu": 669,
      "four": 670,
      "vel": 671,
      "make": 672,
      "night": 673,
      "vest": 674,
      "As": 675,
      "beli": 676,
      "This": 677,
      "col": 678,
      "self": 679,
      "line": 680,
      "use": 681,
      "ctor": 682,
      "war": 683,
      "Re": 684,
      "ollow": 685,
      "Amer": 686,
      "children": 687,
      "see": 688,
      "hand": 689,
      "uch": 690,
      "Americ": 691,
      "sy": 692,
      "ged": 693,
      "sm": 694,
      "know": 695,
      "ffer": 696,
      "ris": 697,
      "law": 698,
      "overnment": 699,
      "take": 700,
      "IS": 701,
      "start": 702,
      "ward": 703,
      "ten": 704,
      "outh": 705,
      "aren": 706,
      "pers": 707,
      "going": 708,
      "came": 709,
      "cus": 710,
      "need": 711,
      "ah": 712,
      "ix": 713,
      "tain": 714,
      "gan": 715,
      "bed": 716,
      "ins": 717,
      "think": 718,
      "miss": 719,
      "ale": 720,
      "since": 721,
      "tory": 722,
      "cut": 723,
      "ures": 724,
      "mother": 725,
      "ys": 726,
      "attack": 727,
      "bre": 728,
      "may": 729,
      "arri": 730,
      "gl": 731,
      "ared": 732,
      "let": 733,
      "CN": 734,
      "ement": 735,
      "view": 736,
      "mil": 737,
      "irl": 738,
      "ms": 739,
      "No": 740,
      "death": 741,
      "ason": 742,
      "ual": 743,
      "happ": 744,
      "high": 745,
      "Mo": 746,
      "CNN": 747,
      "should": 748,
      "jo": 749,
      "run": 750,
      "near": 751,
      "ib": 752,
      "mem": 753,
      "alth": 754,
      "invest": 755,
      "emp": 756,
      "still": 757,
      "follow": 758,
      "official": 759,
      "those": 760,
      "Se": 761,
      "stand": 762,
      "bro": 763,
      "tak": 764,
      "spo": 765,
      "country": 766,
      "augh": 767,
      "ments": 768,
      "bor": 769,
      "hen": 770,
      "ci": 771,
      "according": 772,
      "ames": 773,
      "Mon": 774,
      "United": 775,
      "ody": 776,
      "dri": 777,
      "Pr": 778,
      "your": 779,
      "del": 780,
      "former": 781,
      "ime": 782,
      "kes": 783,
      "aff": 784,
      "school": 785,
      "ween": 786,
      "les": 787,
      "os": 788,
      "sign": 789,
      "top": 790,
      "group": 791,
      "called": 792,
      "cu": 793,
      "ele": 794,
      "ied": 795,
      "national": 796,
      "For": 797,
      "ball": 798,
      "men": 799,
      "ings": 800,
      "second": 801,
      "ds": 802,
      "sho": 803,
      "Pol": 804,
      "ross": 805,
      "between": 806,
      "government": 807,
      "pass": 808,
      "ham": 809,
      "cal": 810,
      "court": 811,
      "including": 812,
      "AT": 813,
      "got": 814,
      "ma": 815,
      "ley": 816,
      "ular": 817,
      "ener": 818,
      "sent": 819,
      "less": 820,
      "xt": 821,
      "vi": 822,
      "book": 823,
      "At": 824,
      "ists": 825,
      "fer": 826,
      "ney": 827,
      "public": 828,
      "stud": 829,
      "ama": 830,
      "eng": 831,
      "gest": 832,
      "mber": 833,
      "sex": 834,
      "such": 835,
      "ower": 836,
      "ork": 837,
      "vol": 838,
      "je": 839,
      "care": 840,
      "ange": 841,
      "ned": 842,
      "person": 843,
      "ister": 844,
      "num": 845,
      "unt": 846,
      "15": 847,
      "ury": 848,
      "On": 849,
      "girl": 850,
      "stat": 851,
      "uary": 852,
      "ina": 853,
      "days": 854,
      "2012": 855,
      "resident": 856,
      "woman": 857,
      "sen": 858,
      "hoto": 859,
      "giv": 860,
      "bs": 861,
      "thor": 862,
      "investig": 863,
      "youn": 864,
      "much": 865,
      "12": 866,
      "ral": 867,
      "took": 868,
      "Lon": 869,
      "ith": 870,
      "plan": 871,
      "iday": 872,
      "Co": 873,
      "ship": 874,
      "Be": 875,
      "Man": 876,
      "good": 877,
      "und": 878,
      "30": 879,
      "bus": 880,
      "five": 881,
      "ened": 882,
      "London": 883,
      "ised": 884,
      "ics": 885,
      "ched": 886,
      "kn": 887,
      "next": 888,
      "ier": 889,
      "tle": 890,
      "away": 891,
      "hour": 892,
      "hu": 893,
      "uck": 894,
      "fac": 895,
      "place": 896,
      "ca": 897,
      "ages": 898,
      "io": 899,
      "body": 900,
      "11": 901,
      "contr": 902,
      "pictured": 903,
      "pect": 904,
      "ines": 905,
      "reported": 906,
      "pri": 907,
      "Nor": 908,
      "spital": 909,
      "vice": 910,
      "ax": 911,
      "quest": 912,
      "There": 913,
      "women": 914,
      "resp": 915,
      "def": 916,
      "Af": 917,
      "fil": 918,
      "photo": 919,
      "PD": 920,
      "room": 921,
      "alleg": 922,
      "cident": 923,
      "foot": 924,
      "Car": 925,
      "rist": 926,
      "bers": 927,
      "Sun": 928,
      "rele": 929,
      "sing": 930,
      "sure": 931,
      "olog": 932,
      "ative": 933,
      "par": 934,
      "state": 935,
      "another": 936,
      "sup": 937,
      "Cl": 938,
      "seen": 939,
      "Li": 940,
      "sear": 941,
      "later": 942,
      "Bo": 943,
      "months": 944,
      "house": 945,
      "contin": 946,
      "ible": 947,
      "today": 948,
      "Mc": 949,
      "aged": 950,
      "ness": 951,
      "post": 952,
      "pay": 953,
      "oney": 954,
      "hal": 955,
      "never": 956,
      "went": 957,
      "sk": 958,
      "mark": 959,
      "atur": 960,
      "Ob": 961,
      "case": 962,
      "den": 963,
      "big": 964,
      "imp": 965,
      "added": 966,
      "York": 967,
      "Tu": 968,
      "wit": 969,
      "Bar": 970,
      "ague": 971,
      "here": 972,
      "died": 973,
      "18": 974,
      "taken": 975,
      "oper": 976,
      "inj": 977,
      "hn": 978,
      "ATED": 979,
      "ants": 980,
      "ago": 981,
      "UPD": 982,
      "UPDATED": 983,
      "press": 984,
      "fect": 985,
      "50": 986,
      "Wor": 987,
      "sol": 988,
      "ces": 989,
      "mit": 990,
      "star": 991,
      "Con": 992,
      "ivers": 993,
      "BL": 994,
      "la": 995,
      "face": 996,
      "six": 997,
      "real": 998,
      "ended": 999,
      "PU": 1000,
      "camp": 1001,
      "clear": 1002,
      "arrest": 1003,
      "both": 1004,
      "these": 1005,
      "ISH": 1006,
      "same": 1007,
      "exper": 1008,
      "PUBL": 1009,
      "ISHED": 1010,
      "PUBLISHED": 1011,
      "too": 1012,
      "lit": 1013,
      "ually": 1014,
      "rent": 1015,
      "won": 1016,
      "Dav": 1017,
      "John": 1018,
      "Sp": 1019,
      "ets": 1020,
      "urs": 1021,
      "Com": 1022,
      "Police": 1023,
      "father": 1024,
      "ison": 1025,
      "Tr": 1026,
      "ext": 1027,
      "hol": 1028,
      "ub": 1029,
      "young": 1030,
      "cons": 1031,
      "blo": 1032,
      "appear": 1033,
      "West": 1034,
      "issu": 1035,
      "sus": 1036,
      "does": 1037,
      "South": 1038,
      "using": 1039,
      "allow": 1040,
      "ency": 1041,
      "move": 1042,
      "sub": 1043,
      "turn": 1044,
      "produ": 1045,
      "ility": 1046,
      "nor": 1047,
      "ready": 1048,
      "sha": 1049,
      "cri": 1050,
      "ways": 1051,
      "Rep": 1052,
      "far": 1053,
      "support": 1054,
      "Scr": 1055,
      "late": 1056,
      "oc": 1057,
      "train": 1058,
      "ling": 1059,
      "season": 1060,
      "wife": 1061,
      "bab": 1062,
      "Eng": 1063,
      "exp": 1064,
      "killed": 1065,
      "net": 1066,
      "shot": 1067,
      "May": 1068,
      "Scroll": 1069,
      "lar": 1070,
      "known": 1071,
      "grap": 1072,
      "World": 1073,
      "ered": 1074,
      "ste": 1075,
      "spokes": 1076,
      "dire": 1077,
      "ony": 1078,
      "recent": 1079,
      "Eur": 1080,
      "ene": 1081,
      "How": 1082,
      "det": 1083,
      "health": 1084,
      "stri": 1085,
      "rece": 1086,
      "fire": 1087,
      "poss": 1088,
      "pat": 1089,
      "Gr": 1090,
      "Obama": 1091,
      "reve": 1092,
      "band": 1093,
      "vent": 1094,
      "remain": 1095,
      "sever": 1096,
      "Jan": 1097,
      "ond": 1098,
      "best": 1099,
      "light": 1100,
      "Aust": 1101,
      "number": 1102,
      "game": 1103,
      "really": 1104,
      "When": 1105,
      "ific": 1106,
      "author": 1107,
      "16": 1108,
      "mat": 1109,
      "daugh": 1110,
      "milit": 1111,
      "half": 1112,
      "Ju": 1113,
      "England": 1114,
      "trans": 1115,
      "You": 1116,
      "ore": 1117,
      "Ste": 1118,
      "Sunday": 1119,
      "British": 1120,
      "'.": 1121,
      "So": 1122,
      "If": 1123,
      "amer": 1124,
      "water": 1125,
      "ont": 1126,
      "feel": 1127,
      "minut": 1128,
      "incre": 1129,
      "president": 1130,
      "plain": 1131,
      "ending": 1132,
      "list": 1133,
      "Monday": 1134,
      "appe": 1135,
      "buil": 1136,
      "aid": 1137,
      "ey": 1138,
      "Sy": 1139,
      "14": 1140,
      "eld": 1141,
      "mor": 1142,
      "company": 1143,
      "pop": 1144,
      "tem": 1145,
      "lot": 1146,
      "sit": 1147,
      "That": 1148,
      "loy": 1149,
      "iting": 1150,
      "test": 1151,
      "Tuesday": 1152,
      "Sh": 1153,
      "iness": 1154,
      "ought": 1155,
      "ford": 1156,
      "ref": 1157,
      "gy": 1158,
      "One": 1159,
      "Coun": 1160,
      "order": 1161,
      "return": 1162,
      "Cr": 1163,
      "city": 1164,
      "polit": 1165,
      "ator": 1166,
      "bar": 1167,
      "ones": 1168,
      "prom": 1169,
      "ern": 1170,
      "curity": 1171,
      "didn": 1172,
      "hit": 1173,
      "ges": 1174,
      "met": 1175,
      "hospital": 1176,
      "ager": 1177,
      "Friday": 1178,
      "President": 1179,
      "17": 1180,
      "few": 1181,
      "pped": 1182,
      "tors": 1183,
      "keep": 1184,
      "colle": 1185,
      "pected": 1186,
      "tow": 1187,
      "ished": 1188,
      "Wed": 1189,
      "Go": 1190,
      "mar": 1191,
      "City": 1192,
      "American": 1193,
      "val": 1194,
      "sum": 1195,
      "paren": 1196,
      "statement": 1197,
      "13": 1198,
      "ject": 1199,
      "believ": 1200,
      "reveal": 1201,
      "bur": 1202,
      "differ": 1203,
      "mur": 1204,
      "having": 1205,
      "money": 1206,
      "stem": 1207,
      "hours": 1208,
      "ffic": 1209,
      "Christ": 1210,
      "vid": 1211,
      "Pe": 1212,
      "open": 1213,
      "ately": 1214,
      "Mic": 1215,
      "recor": 1216,
      "Ger": 1217,
      "fun": 1218,
      "Is": 1219,
      "without": 1220,
      "following": 1221,
      "Bl": 1222,
      "ety": 1223,
      "Wedn": 1224,
      "amed": 1225,
      "Wednesday": 1226,
      "gre": 1227,
      "Min": 1228,
      "une": 1229,
      "victim": 1230,
      "until": 1231,
      "thought": 1232,
      "ying": 1233,
      "walk": 1234,
      "ali": 1235,
      "alleged": 1236,
      "dead": 1237,
      "vious": 1238,
      "deal": 1239,
      "His": 1240,
      "mid": 1241,
      "uss": 1242,
      "ired": 1243,
      "boy": 1244,
      "club": 1245,
      "lier": 1246,
      "UK": 1247,
      "ground": 1248,
      "asked": 1249,
      "gun": 1250,
      "Satur": 1251,
      "prof": 1252,
      "David": 1253,
      "invol": 1254,
      "Austral": 1255,
      "Har": 1256,
      "por": 1257,
      "across": 1258,
      "daughter": 1259,
      "search": 1260,
      "commun": 1261,
      "cas": 1262,
      "eve": 1263,
      "Europe": 1264,
      "comple": 1265,
      "ror": 1266,
      "cot": 1267,
      "To": 1268,
      "ional": 1269,
      "find": 1270,
      "appro": 1271,
      "25": 1272,
      "ams": 1273,
      "iversity": 1274,
      "present": 1275,
      "ird": 1276,
      "ailed": 1277,
      "each": 1278,
      "ient": 1279,
      "saying": 1280,
      "ord": 1281,
      "times": 1282,
      "ined": 1283,
      "past": 1284,
      "Saturday": 1285,
      "ran": 1286,
      "fight": 1287,
      "Thurs": 1288,
      "coming": 1289,
      "officials": 1290,
      "cost": 1291,
      "talk": 1292,
      "given": 1293,
      "little": 1294,
      "power": 1295,
      "Thursday": 1296,
      "feat": 1297,
      "close": 1298,
      "proble": 1299,
      "ism": 1300,
      "action": 1301,
      "sea": 1302,
      "ester": 1303,
      "pite": 1304,
      "point": 1305,
      "aign": 1306,
      "job": 1307,
      "cret": 1308,
      "working": 1309,
      "Ph": 1310,
      "front": 1311,
      "...": 1312,
      "Miss": 1313,
      "along": 1314,
      "Col": 1315,
      "coup": 1316,
      "League": 1317,
      "Cup": 1318,
      "fort": 1319,
      "TV": 1320,
      "taking": 1321,
      "bit": 1322,
      "viol": 1323,
      "hes": 1324,
      "hind": 1325,
      "),": 1326,
      "murder": 1327,
      "suffer": 1328,
      "acc": 1329,
      "current": 1330,
      "covered": 1331,
      "trave": 1332,
      "drug": 1333,
      "area": 1334,
      "something": 1335,
      "lim": 1336,
      "enn": 1337,
      "incident": 1338,
      "early": 1339,
      "prison": 1340,
      "Mail": 1341,
      "Ge": 1342,
      "ats": 1343,
      "jor": 1344,
      "plac": 1345,
      "ump": 1346,
      "ives": 1347,
      "Dr": 1348,
      "idence": 1349,
      "already": 1350,
      "ric": 1351,
      "cele": 1352,
      "ision": 1353,
      "After": 1354,
      "news": 1355,
      "North": 1356,
      "descri": 1357,
      "organ": 1358,
      "hard": 1359,
      "system": 1360,
      "Her": 1361,
      "suc": 1362,
      "parents": 1363,
      "celebr": 1364,
      "ized": 1365,
      "Will": 1366,
      "members": 1367,
      "stre": 1368,
      "great": 1369,
      "round": 1370,
      "inal": 1371,
      "road": 1372,
      "poin": 1373,
      "campaign": 1374,
      "velop": 1375,
      "behind": 1376,
      "tell": 1377,
      "business": 1378,
      "friends": 1379,
      "ches": 1380,
      "announ": 1381,
      "weeks": 1382,
      "soci": 1383,
      "making": 1384,
      "Inter": 1385,
      "ull": 1386,
      "ards": 1387,
      "couple": 1388,
      "ush": 1389,
      "All": 1390,
      "event": 1391,
      "January": 1392,
      "gener": 1393,
      "dam": 1394,
      "wear": 1395,
      "que": 1396,
      "istr": 1397,
      "outside": 1398,
      "ived": 1399,
      "final": 1400,
      "ically": 1401,
      "released": 1402,
      "heard": 1403,
      "mom": 1404,
      "ief": 1405,
      "phone": 1406,
      "bel": 1407,
      "rid": 1408,
      "believe": 1409,
      "design": 1410,
      "jud": 1411,
      "town": 1412,
      "treat": 1413,
      "spokesman": 1414,
      "free": 1415,
      "formation": 1416,
      "chester": 1417,
      "40": 1418,
      "199": 1419,
      "aily": 1420,
      "become": 1421,
      "change": 1422,
      "cour": 1423,
      "Ac": 1424,
      "legal": 1425,
      "military": 1426,
      "BC": 1427,
      "hus": 1428,
      "threat": 1429,
      "dog": 1430,
      "concer": 1431,
      "ified": 1432,
      "bal": 1433,
      "cast": 1434,
      "meet": 1435,
      "ming": 1436,
      "local": 1437,
      "break": 1438,
      "give": 1439,
      "sed": 1440,
      "wa": 1441,
      "security": 1442,
      "Sep": 1443,
      "husband": 1444,
      "Court": 1445,
      "started": 1446,
      "imes": 1447,
      "Russ": 1448,
      "always": 1449,
      "several": 1450,
      "mak": 1451,
      "ani": 1452,
      "artment": 1453,
      "lor": 1454,
      "ales": 1455,
      "row": 1456,
      "least": 1457,
      "ior": 1458,
      "whether": 1459,
      "arrested": 1460,
      "Oc": 1461,
      "ands": 1462,
      "Ms": 1463,
      "pen": 1464,
      "fall": 1465,
      "fur": 1466,
      "heart": 1467,
      "saw": 1468,
      "Britain": 1469,
      "lost": 1470,
      "develop": 1471,
      "love": 1472,
      "chang": 1473,
      "ica": 1474,
      "sug": 1475,
      "looking": 1476,
      "held": 1477,
      "custo": 1478,
      "mp": 1479,
      "claimed": 1480,
      "seem": 1481,
      "graph": 1482,
      "cher": 1483,
      "watch": 1484,
      "major": 1485,
      "pool": 1486,
      "revealed": 1487,
      "ik": 1488,
      "ps": 1489,
      "human": 1490,
      "marri": 1491,
      "Afr": 1492,
      "fact": 1493,
      "ington": 1494,
      "comes": 1495,
      "players": 1496,
      "might": 1497,
      "crit": 1498,
      "aring": 1499,
      "hot": 1500,
      "wanted": 1501,
      "eder": 1502,
      "100": 1503,
      "ues": 1504,
      "24": 1505,
      "name": 1506,
      "emer": 1507,
      "ators": 1508,
      "short": 1509,
      "record": 1510,
      "stit": 1511,
      "tar": 1512,
      "dro": 1513,
      "shows": 1514,
      "success": 1515,
      "key": 1516,
      "Par": 1517,
      "flo": 1518,
      "ory": 1519,
      "different": 1520,
      "small": 1521,
      "Manchester": 1522,
      "likely": 1523,
      "clud": 1524,
      "Nove": 1525,
      "ances": 1526,
      "full": 1527,
      "main": 1528,
      "Dece": 1529,
      "November": 1530,
      "seven": 1531,
      "stru": 1532,
      "cked": 1533,
      "food": 1534,
      "proper": 1535,
      "2011": 1536,
      "December": 1537,
      "mess": 1538,
      "gether": 1539,
      "Am": 1540,
      "live": 1541,
      "expected": 1542,
      "Septem": 1543,
      "Fe": 1544,
      "Gu": 1545,
      "hold": 1546,
      "Scot": 1547,
      "September": 1548,
      "States": 1549,
      "ane": 1550,
      "party": 1551,
      "media": 1552,
      "field": 1553,
      "tober": 1554,
      "step": 1555,
      "based": 1556,
      "University": 1557,
      "claims": 1558,
      "Ser": 1559,
      "dep": 1560,
      "morning": 1561,
      "Aug": 1562,
      "class": 1563,
      "Face": 1564,
      "consid": 1565,
      "October": 1566,
      "However": 1567,
      "enter": 1568,
      "officers": 1569,
      "better": 1570,
      "Dep": 1571,
      "House": 1572,
      "rul": 1573,
      "gn": 1574,
      "trying": 1575,
      "ided": 1576,
      "qual": 1577,
      "earlier": 1578,
      "vir": 1579,
      "esterday": 1580,
      "cy": 1581,
      "tax": 1582,
      "March": 1583,
      "ising": 1584,
      "conom": 1585,
      "tech": 1586,
      "pain": 1587,
      "force": 1588,
      "among": 1589,
      "ribut": 1590,
      "August": 1591,
      "authorities": 1592,
      "bir": 1593,
      "together": 1594,
      "conv": 1595,
      "aut": 1596,
      "gin": 1597,
      "prote": 1598,
      "staff": 1599,
      "import": 1600,
      "Facebook": 1601,
      "level": 1602,
      "anger": 1603,
      "match": 1604,
      "investigation": 1605,
      "things": 1606,
      "Mrs": 1607,
      "22": 1608,
      "laun": 1609,
      "cept": 1610,
      "arm": 1611,
      "stay": 1612,
      "ria": 1613,
      "building": 1614,
      "ution": 1615,
      "hor": 1616,
      "began": 1617,
      "ians": 1618,
      "21": 1619,
      "decision": 1620,
      "himself": 1621,
      "ana": 1622,
      "shoot": 1623,
      "grow": 1624,
      "posed": 1625,
      "football": 1626,
      "Geor": 1627,
      "Fo": 1628,
      "third": 1629,
      "minutes": 1630,
      "ential": 1631,
      "once": 1632,
      "goal": 1633,
      "hael": 1634,
      "information": 1635,
      "June": 1636,
      "dem": 1637,
      "must": 1638,
      "Ho": 1639,
      "employ": 1640,
      "progr": 1641,
      "Lo": 1642,
      "moved": 1643,
      "sell": 1644,
      "ize": 1645,
      "bot": 1646,
      "nal": 1647,
      "partic": 1648,
      "National": 1649,
      "strong": 1650,
      "experi": 1651,
      "urch": 1652,
      "black": 1653,
      "hom": 1654,
      "My": 1655,
      "wrote": 1656,
      "Lu": 1657,
      "Pro": 1658,
      "sw": 1659,
      "admit": 1660,
      "priv": 1661,
      "suggest": 1662,
      "aul": 1663,
      "previous": 1664,
      "anim": 1665,
      "count": 1666,
      "US": 1667,
      "van": 1668,
      "ute": 1669,
      "cil": 1670,
      "charged": 1671,
      "Michael": 1672,
      "acy": 1673,
      "wards": 1674,
      "compet": 1675,
      "appeared": 1676,
      "prot": 1677,
      "accused": 1678,
      "fell": 1679,
      "July": 1680,
      "War": 1681,
      "site": 1682,
      "econom": 1683,
      "elt": 1684,
      "ense": 1685,
      "social": 1686,
      "2014": 1687,
      "shop": 1688,
      "large": 1689,
      "pot": 1690,
      "eight": 1691,
      "position": 1692,
      "conf": 1693,
      "atic": 1694,
      "23": 1695,
      "hope": 1696,
      "sco": 1697,
      "charges": 1698,
      "almost": 1699,
      "Me": 1700,
      "enough": 1701,
      "others": 1702,
      "commit": 1703,
      "played": 1704,
      "terror": 1705,
      "60": 1706,
      "risk": 1707,
      "due": 1708,
      "rain": 1709,
      "became": 1710,
      "webs": 1711,
      "shire": 1712,
      "host": 1713,
      "board": 1714,
      "service": 1715,
      "wood": 1716,
      "doing": 1717,
      "Park": 1718,
      "serious": 1719,
      "interest": 1720,
      "aper": 1721,
      "ecut": 1722,
      "What": 1723,
      "supp": 1724,
      "Willi": 1725,
      "special": 1726,
      "kid": 1727,
      "mission": 1728,
      "possible": 1729,
      "Apr": 1730,
      "spot": 1731,
      "Cor": 1732,
      "wind": 1733,
      "ences": 1734,
      "Ed": 1735,
      "Daily": 1736,
      "April": 1737,
      "fans": 1738,
      "stop": 1739,
      "hop": 1740,
      "vices": 1741,
      "getting": 1742,
      "yle": 1743,
      "trial": 1744,
      "lives": 1745,
      "contribut": 1746,
      "fig": 1747,
      "flight": 1748,
      "Or": 1749,
      "confir": 1750,
      "doctor": 1751,
      "grand": 1752,
      "international": 1753,
      "tal": 1754,
      "why": 1755,
      "dest": 1756,
      "rap": 1757,
      "ium": 1758,
      "yesterday": 1759,
      "ben": 1760,
      "iver": 1761,
      "teen": 1762,
      "fully": 1763,
      "comment": 1764,
      "interview": 1765,
      "online": 1766,
      "ried": 1767,
      "istan": 1768,
      "ament": 1769,
      "office": 1770,
      "nation": 1771,
      "tra": 1772,
      "control": 1773,
      "ken": 1774,
      "bul": 1775,
      "ston": 1776,
      "ology": 1777,
      "Indi": 1778,
      "mus": 1779,
      "yet": 1780,
      "born": 1781,
      "requ": 1782,
      "fut": 1783,
      "done": 1784,
      "manager": 1785,
      "Just": 1786,
      "evidence": 1787,
      "Febr": 1788,
      "February": 1789,
      "ler": 1790,
      "ails": 1791,
      "loc": 1792,
      "ering": 1793,
      "reed": 1794,
      "slam": 1795,
      "draw": 1796,
      "aving": 1797,
      "turned": 1798,
      "Pal": 1799,
      "pair": 1800,
      "techn": 1801,
      "inside": 1802,
      "thern": 1803,
      "icle": 1804,
      "happened": 1805,
      "rew": 1806,
      "China": 1807,
      "Ne": 1808,
      "uel": 1809,
      "Republic": 1810,
      "market": 1811,
      "spent": 1812,
      "baby": 1813,
      "witter": 1814,
      "ctions": 1815,
      "Char": 1816,
      "squ": 1817,
      "super": 1818,
      "ban": 1819,
      "County": 1820,
      "James": 1821,
      "effect": 1822,
      "crim": 1823,
      "believed": 1824,
      "includ": 1825,
      "brother": 1826,
      "News": 1827,
      "protest": 1828,
      "stead": 1829,
      "With": 1830,
      "execut": 1831,
      "aster": 1832,
      "dle": 1833,
      "term": 1834,
      "program": 1835,
      "2010": 1836,
      "film": 1837,
      "27": 1838,
      "jour": 1839,
      "tried": 1840,
      "lex": 1841,
      "icted": 1842,
      "assa": 1843,
      "received": 1844,
      "ai": 1845,
      "nia": 1846,
      "State": 1847,
      "aly": 1848,
      "Twitter": 1849,
      "tries": 1850,
      "despite": 1851,
      "Mart": 1852,
      "mag": 1853,
      "future": 1854,
      "further": 1855,
      "omb": 1856,
      "polic": 1857,
      "political": 1858,
      "mocr": 1859,
      "important": 1860,
      "bad": 1861,
      "scre": 1862,
      "dou": 1863,
      "Ang": 1864,
      "26": 1865,
      "reports": 1866,
      "ico": 1867,
      "director": 1868,
      "Ex": 1869,
      "described": 1870,
      "lear": 1871,
      "leave": 1872,
      "often": 1873,
      "involved": 1874,
      "officer": 1875,
      "fit": 1876,
      "abo": 1877,
      "named": 1878,
      "scene": 1879,
      "ening": 1880,
      "trad": 1881,
      "prose": 1882,
      "yal": 1883,
      "website": 1884,
      "gency": 1885,
      "question": 1886,
      "ging": 1887,
      "vision": 1888,
      "Cali": 1889,
      "28": 1890,
      "living": 1891,
      "Jack": 1892,
      "ino": 1893,
      "bring": 1894,
      "low": 1895,
      "batt": 1896,
      "Califor": 1897,
      "forward": 1898,
      "aur": 1899,
      "Wash": 1900,
      "Ad": 1901,
      "Department": 1902,
      "Air": 1903,
      "Ham": 1904,
      "birth": 1905,
      "Chel": 1906,
      "tro": 1907,
      "target": 1908,
      "mean": 1909,
      "ahead": 1910,
      "story": 1911,
      "spec": 1912,
      "Res": 1913,
      "bank": 1914,
      "wed": 1915,
      "capt": 1916,
      "activ": 1917,
      "billion": 1918,
      "uc": 1919,
      "dress": 1920,
      "mas": 1921,
      "neigh": 1922,
      "Ab": 1923,
      "San": 1924,
      "ederal": 1925,
      "series": 1926,
      "idge": 1927,
      "sim": 1928,
      "dom": 1929,
      "announced": 1930,
      "Ira": 1931,
      "Washington": 1932,
      "tre": 1933,
      "lying": 1934,
      "rench": 1935,
      "complete": 1936,
      "Hol": 1937,
      "While": 1938,
      "guil": 1939,
      "gave": 1940,
      "playing": 1941,
      "player": 1942,
      "Sm": 1943,
      "According": 1944,
      "Iraq": 1945,
      "chall": 1946,
      "Po": 1947,
      "wide": 1948,
      "rac": 1949,
      "igr": 1950,
      "worth": 1951,
      "America": 1952,
      "tit": 1953,
      "respons": 1954,
      "training": 1955,
      "California": 1956,
      "ns": 1957,
      "eas": 1958,
      "history": 1959,
      "tour": 1960,
      "itions": 1961,
      "Some": 1962,
      "vot": 1963,
      "sport": 1964,
      "relation": 1965,
      "within": 1966,
      "ached": 1967,
      "forced": 1968,
      "veh": 1969,
      "bert": 1970,
      "sour": 1971,
      "leader": 1972,
      "camer": 1973,
      "park": 1974,
      "East": 1975,
      "cell": 1976,
      "process": 1977,
      "ampion": 1978,
      "oud": 1979,
      "Paul": 1980,
      "ivil": 1981,
      "ention": 1982,
      "Sup": 1983,
      "summer": 1984,
      "famil": 1985,
      "ple": 1986,
      "certain": 1987,
      "chief": 1988,
      "miles": 1989,
      "community": 1990,
      "admitted": 1991,
      "medi": 1992,
      "docu": 1993,
      "moment": 1994,
      "ries": 1995,
      "model": 1996,
      "White": 1997,
      "ults": 1998,
      "Can": 1999,
      "ilar": 2000,
      "leaders": 2001,
      "writ": 2002,
      "pick": 2003,
      "beat": 2004,
      "ensive": 2005,
      "Liver": 2006,
      "popular": 2007,
      "decl": 2008,
      "white": 2009,
      "study": 2010,
      "El": 2011,
      "Mad": 2012,
      "Minister": 2013,
      "vo": 2014,
      "mass": 2015,
      "carry": 2016,
      "els": 2017,
      "drink": 2018,
      "Australia": 2019,
      "suit": 2020,
      "ung": 2021,
      "mers": 2022,
      "itive": 2023,
      "ousands": 2024,
      "lif": 2025,
      "Des": 2026,
      "susp": 2027,
      "kind": 2028,
      "acher": 2029,
      "rights": 2030,
      "course": 2031,
      "French": 2032,
      "orter": 2033,
      "29": 2034,
      "Liverpool": 2035,
      "spir": 2036,
      "doesn": 2037,
      "whose": 2038,
      "explo": 2039,
      "rad": 2040,
      "ring": 2041,
      "nearly": 2042,
      "reme": 2043,
      "Don": 2044,
      "ices": 2045,
      "Kore": 2046,
      "issue": 2047,
      "ican": 2048,
      "har": 2049,
      "dist": 2050,
      "allegedly": 2051,
      "ze": 2052,
      "ides": 2053,
      "ron": 2054,
      "paid": 2055,
      "Mark": 2056,
      "diffic": 2057,
      "someone": 2058,
      "cretary": 2059,
      "deb": 2060,
      "quick": 2061,
      "Prem": 2062,
      "hig": 2063,
      "bi": 2064,
      "European": 2065,
      "Last": 2066,
      "Chelsea": 2067,
      "EO": 2068,
      "provid": 2069,
      "Gre": 2070,
      "Sen": 2071,
      "Now": 2072,
      "migr": 2073,
      "',": 2074,
      "dy": 2075,
      "currently": 2076,
      "gen": 2077,
      "guilty": 2078,
      "picture": 2079,
      "ners": 2080,
      "Mil": 2081,
      "latest": 2082,
      "continue": 2083,
      "fav": 2084,
      "Pl": 2085,
      "Ear": 2086,
      "bill": 2087,
      "space": 2088,
      "198": 2089,
      "Im": 2090,
      "medical": 2091,
      "soon": 2092,
      "Em": 2093,
      "worked": 2094,
      "role": 2095,
      "sn": 2096,
      "ained": 2097,
      "bour": 2098,
      "selves": 2099,
      "mis": 2100,
      "students": 2101,
      "ker": 2102,
      "Rom": 2103,
      "aft": 2104,
      "ona": 2105,
      "rian": 2106,
      "caused": 2107,
      "Angel": 2108,
      "ination": 2109,
      "enjo": 2110,
      "condition": 2111,
      "cancer": 2112,
      "continu": 2113,
      "perfor": 2114,
      "ability": 2115,
      "cel": 2116,
      "defend": 2117,
      "showed": 2118,
      "posted": 2119,
      "centre": 2120,
      "plans": 2121,
      "decided": 2122,
      "complain": 2123,
      "countries": 2124,
      "torney": 2125,
      "wasn": 2126,
      "gress": 2127,
      "personal": 2128,
      "enced": 2129,
      "Do": 2130,
      "relationship": 2131,
      "judge": 2132,
      "coll": 2133,
      "dies": 2134,
      "huge": 2135,
      "recently": 2136,
      "contributed": 2137,
      "weight": 2138,
      "victims": 2139,
      "anything": 2140,
      "anned": 2141,
      "aver": 2142,
      "hip": 2143,
      "**": 2144,
      "serv": 2145,
      "Ber": 2146,
      "looked": 2147,
      "Chris": 2148,
      "wrong": 2149,
      "ghan": 2150,
      "track": 2151,
      "70": 2152,
      "uries": 2153,
      "happy": 2154,
      "treatment": 2155,
      "tee": 2156,
      "Islam": 2157,
      "weekend": 2158,
      "weet": 2159,
      "surv": 2160,
      "avy": 2161,
      "ference": 2162,
      "simp": 2163,
      "ata": 2164,
      "immedi": 2165,
      "nothing": 2166,
      "uation": 2167,
      "2009": 2168,
      "ature": 2169,
      "contact": 2170,
      "accident": 2171,
      "Christmas": 2172,
      "ida": 2173,
      "sexual": 2174,
      "Premier": 2175,
      "member": 2176,
      "orig": 2177,
      "explain": 2178,
      "games": 2179,
      "500": 2180,
      "atter": 2181,
      "Alex": 2182,
      "quar": 2183,
      "product": 2184,
      "Ben": 2185,
      "rock": 2186,
      "race": 2187,
      "comments": 2188,
      "potential": 2189,
      "plane": 2190,
      "suffered": 2191,
      "adv": 2192,
      "pet": 2193,
      "discovered": 2194,
      "career": 2195,
      "mal": 2196,
      "difficult": 2197,
      "fear": 2198,
      "profess": 2199,
      "Rob": 2200,
      "Rich": 2201,
      "depend": 2202,
      "leading": 2203,
      "Camer": 2204,
      "charge": 2205,
      "ped": 2206,
      "apped": 2207,
      "FA": 2208,
      "Afghan": 2209,
      "strug": 2210,
      "Phil": 2211,
      "problem": 2212,
      "ru": 2213,
      "Sam": 2214,
      "Isra": 2215,
      "ID": 2216,
      "civil": 2217,
      "running": 2218,
      "girls": 2219,
      "hair": 2220,
      "blood": 2221,
      "nine": 2222,
      "Que": 2223,
      "Lab": 2224,
      "box": 2225,
      "result": 2226,
      "Israel": 2227,
      "forces": 2228,
      "Per": 2229,
      ").": 2230,
      "expect": 2231,
      "tele": 2232,
      "door": 2233,
      "plic": 2234,
      "thousands": 2235,
      "France": 2236,
      "similar": 2237,
      "missing": 2238,
      "Mid": 2239,
      "saf": 2240,
      "pie": 2241,
      "Med": 2242,
      "Te": 2243,
      "ulation": 2244,
      "lin": 2245,
      "ades": 2246,
      "na": 2247,
      "visit": 2248,
      "gas": 2249,
      "makes": 2250,
      "Jer": 2251,
      "means": 2252,
      "ars": 2253,
      "brought": 2254,
      "understand": 2255,
      "king": 2256,
      "George": 2257,
      "cases": 2258,
      "ald": 2259,
      "undred": 2260,
      "Arsen": 2261,
      "publ": 2262,
      "sey": 2263,
      "pur": 2264,
      "gent": 2265,
      "Its": 2266,
      "glo": 2267,
      "ither": 2268,
      "failed": 2269,
      "init": 2270,
      "stu": 2271,
      "King": 2272,
      "ops": 2273,
      "benef": 2274,
      "access": 2275,
      "flu": 2276,
      "remains": 2277,
      "ients": 2278,
      "suspect": 2279,
      "works": 2280,
      "Spe": 2281,
      "felt": 2282,
      "link": 2283,
      "avail": 2284,
      "hearing": 2285,
      "Democr": 2286,
      "problems": 2287,
      "sle": 2288,
      "chance": 2289,
      "lie": 2290,
      "Mex": 2291,
      "chair": 2292,
      "property": 2293,
      "private": 2294,
      "federal": 2295,
      "Flor": 2296,
      "pack": 2297,
      "Day": 2298,
      "Mus": 2299,
      "stor": 2300,
      "compan": 2301,
      "travel": 2302,
      "ministr": 2303,
      "gone": 2304,
      "confirmed": 2305,
      "above": 2306,
      "attemp": 2307,
      "violence": 2308,
      "Sha": 2309,
      "station": 2310,
      "Wil": 2311,
      "meas": 2312,
      "uses": 2313,
      "placed": 2314,
      "impro": 2315,
      "ov": 2316,
      "ounds": 2317,
      "App": 2318,
      "safe": 2319,
      "allowed": 2320,
      "45": 2321,
      "lies": 2322,
      "driver": 2323,
      "points": 2324,
      "research": 2325,
      "leaving": 2326,
      "Sch": 2327,
      "families": 2328,
      "Su": 2329,
      "danger": 2330,
      "killing": 2331,
      "safety": 2332,
      "respond": 2333,
      "fem": 2334,
      "wat": 2335,
      "lawy": 2336,
      "anti": 2337,
      "include": 2338,
      "attacks": 2339,
      "Iran": 2340,
      "bas": 2341,
      "bing": 2342,
      "particular": 2343,
      "Braz": 2344,
      "2008": 2345,
      "hood": 2346,
      "student": 2347,
      "driving": 2348,
      "conne": 2349,
      "Smith": 2350,
      "themselves": 2351,
      "ks": 2352,
      "cir": 2353,
      "Two": 2354,
      "hands": 2355,
      "soldi": 2356,
      "Lou": 2357,
      "knew": 2358,
      "workers": 2359,
      "divid": 2360,
      "page": 2361,
      "cli": 2362,
      "looks": 2363,
      "tw": 2364,
      "fast": 2365,
      "za": 2366,
      "experience": 2367,
      "BBC": 2368,
      "represent": 2369,
      "capital": 2370,
      "anyone": 2371,
      "ese": 2372,
      "account": 2373,
      "crash": 2374,
      "everything": 2375,
      "seek": 2376,
      "available": 2377,
      "MP": 2378,
      "arrived": 2379,
      "fail": 2380,
      "Brazil": 2381,
      "Red": 2382,
      "ots": 2383,
      "holiday": 2384,
      "audi": 2385,
      "bag": 2386,
      "cru": 2387,
      "pun": 2388,
      "release": 2389,
      "weap": 2390,
      "wearing": 2391,
      "35": 2392,
      "injuries": 2393,
      "Pat": 2394,
      "Florida": 2395,
      "protect": 2396,
      "ij": 2397,
      "Africa": 2398,
      "Au": 2399,
      "Mur": 2400,
      "images": 2401,
      "Mor": 2402,
      "cross": 2403,
      "Du": 2404,
      "sat": 2405,
      "ease": 2406,
      "needed": 2407,
      "Ken": 2408,
      "shooting": 2409,
      "aging": 2410,
      "Wo": 2411,
      "famous": 2412,
      "asing": 2413,
      "percent": 2414,
      "married": 2415,
      "image": 2416,
      "Hu": 2417,
      "surpr": 2418,
      "crime": 2419,
      "lect": 2420,
      "Stre": 2421,
      "pressed": 2422,
      "ky": 2423,
      "hy": 2424,
      "message": 2425,
      "music": 2426,
      "opt": 2427,
      "loss": 2428,
      "reach": 2429,
      "Reporter": 2430,
      "Gl": 2431,
      "patients": 2432,
      "ays": 2433,
      "International": 2434,
      "Thom": 2435,
      "itional": 2436,
      "equ": 2437,
      "pul": 2438,
      "oid": 2439,
      "critic": 2440,
      "rather": 2441,
      "hur": 2442,
      "firm": 2443,
      "victory": 2444,
      "injured": 2445,
      "pan": 2446,
      "ashed": 2447,
      "Cent": 2448,
      "condu": 2449,
      "31": 2450,
      "lymp": 2451,
      "meeting": 2452,
      "indust": 2453,
      "beaut": 2454,
      "atives": 2455,
      "apan": 2456,
      "High": 2457,
      "ount": 2458,
      "arent": 2459,
      "ery": 2460,
      "rup": 2461,
      "cks": 2462,
      "Not": 2463,
      "speak": 2464,
      "project": 2465,
      "depart": 2466,
      "cand": 2467,
      "Brown": 2468,
      "crow": 2469,
      "ari": 2470,
      "glish": 2471,
      "Olymp": 2472,
      "strict": 2473,
      "idea": 2474,
      "store": 2475,
      "assist": 2476,
      "Japan": 2477,
      "winning": 2478,
      "Vic": 2479,
      "pract": 2480,
      "bol": 2481,
      "wall": 2482,
      "respon": 2483,
      "termin": 2484,
      "Mal": 2485,
      "actually": 2486,
      "owner": 2487,
      "abuse": 2488,
      "helped": 2489,
      "argu": 2490,
      "lands": 2491,
      "yn": 2492,
      "Prime": 2493,
      "teacher": 2494,
      "stage": 2495,
      "mob": 2496,
      "election": 2497,
      "giving": 2498,
      "Fer": 2499,
      "ght": 2500,
      "boss": 2501,
      "cit": 2502,
      "coach": 2503,
      "Pak": 2504,
      "caught": 2505,
      "English": 2506,
      "School": 2507,
      "Bel": 2508,
      "sun": 2509,
      "elder": 2510,
      "ping": 2511,
      "wants": 2512,
      "kept": 2513,
      "Cameron": 2514,
      "ded": 2515,
      "Off": 2516,
      "Hospital": 2517,
      "address": 2518,
      "elect": 2519,
      "terri": 2520,
      "Syria": 2521,
      "west": 2522,
      "Mi": 2523,
      "peri": 2524,
      "Royal": 2525,
      "chers": 2526,
      "returned": 2527,
      "begin": 2528,
      "buy": 2529,
      "discus": 2530,
      "craft": 2531,
      "unity": 2532,
      "reason": 2533,
      "pictures": 2534,
      "Bro": 2535,
      "inst": 2536,
      "die": 2537,
      "ampions": 2538,
      "injury": 2539,
      "Russian": 2540,
      "sem": 2541,
      "single": 2542,
      "These": 2543,
      "street": 2544,
      "Martin": 2545,
      "Cap": 2546,
      "smo": 2547,
      "Ke": 2548,
      "created": 2549,
      "counts": 2550,
      "services": 2551,
      "ady": 2552,
      "minute": 2553,
      "sold": 2554,
      "hotel": 2555,
      "More": 2556,
      "hundred": 2557,
      "bid": 2558,
      "prevent": 2559,
      "aves": 2560,
      "senior": 2561,
      "bomb": 2562,
      "Associ": 2563,
      "agency": 2564,
      "Hill": 2565,
      "range": 2566,
      "wel": 2567,
      "ibility": 2568,
      "ipp": 2569,
      "camera": 2570,
      "Russia": 2571,
      "ival": 2572,
      "situation": 2573,
      "roll": 2574,
      "areas": 2575,
      "feet": 2576,
      "yed": 2577,
      "ashion": 2578,
      "everyone": 2579,
      "Arsenal": 2580,
      "lied": 2581,
      "Tom": 2582,
      "minister": 2583,
      "ancial": 2584,
      "brain": 2585,
      "join": 2586,
      "north": 2587,
      "non": 2588,
      "issues": 2589,
      "calls": 2590,
      "engers": 2591,
      "ify": 2592,
      "Tex": 2593,
      "longer": 2594,
      "mind": 2595,
      "estim": 2596,
      "Os": 2597,
      "Che": 2598,
      "groups": 2599,
      "itor": 2600,
      "Street": 2601,
      "witness": 2602,
      "photograph": 2603,
      "matter": 2604,
      "phys": 2605,
      "period": 2606,
      "biggest": 2607,
      "launched": 2608,
      "jail": 2609,
      "Val": 2610,
      "educ": 2611,
      "Americans": 2612,
      "figh": 2613,
      "cannot": 2614,
      "warned": 2615,
      "kick": 2616,
      "charac": 2617,
      "reas": 2618,
      "opport": 2619,
      "fat": 2620,
      "cking": 2621,
      "Bay": 2622,
      "pil": 2623,
      "whole": 2624,
      "couldn": 2625,
      "south": 2626,
      "deep": 2627,
      "Australian": 2628,
      "surve": 2629,
      "80": 2630,
      "operation": 2631,
      "cars": 2632,
      "doctors": 2633,
      "total": 2634,
      "Prince": 2635,
      "drugs": 2636,
      "separ": 2637,
      "trip": 2638,
      "speed": 2639,
      "vast": 2640,
      "average": 2641,
      "provide": 2642,
      "policy": 2643,
      "iant": 2644,
      "empt": 2645,
      "tur": 2646,
      "else": 2647,
      "sister": 2648,
      "sentence": 2649,
      "performan": 2650,
      "Black": 2651,
      "cogn": 2652,
      "table": 2653,
      "users": 2654,
      "Germany": 2655,
      "east": 2656,
      "criminal": 2657,
      "needs": 2658,
      "goals": 2659,
      "ows": 2660,
      "Je": 2661,
      "Cam": 2662,
      "takes": 2663,
      "comb": 2664,
      "bled": 2665,
      "demand": 2666,
      "spr": 2667,
      "surger": 2668,
      "inese": 2669,
      "repor": 2670,
      "challen": 2671,
      "pm": 2672,
      "journal": 2673,
      "ara": 2674,
      "ille": 2675,
      "Labour": 2676,
      "region": 2677,
      "Secretary": 2678,
      "ishing": 2679,
      "sal": 2680,
      "fighting": 2681,
      "carried": 2682,
      "letter": 2683,
      "inc": 2684,
      "ny": 2685,
      "date": 2686,
      "signific": 2687,
      "identified": 2688,
      "Peter": 2689,
      "however": 2690,
      "scient": 2691,
      "contract": 2692,
      "ushed": 2693,
      "answ": 2694,
      "included": 2695,
      "mental": 2696,
      "Scott": 2697,
      "clim": 2698,
      "mist": 2699,
      "Uk": 2700,
      "ession": 2701,
      "Texas": 2702,
      "pressure": 2703,
      "vill": 2704,
      "assault": 2705,
      "immediately": 2706,
      "vote": 2707,
      "vehicle": 2708,
      "extra": 2709,
      "fair": 2710,
      "price": 2711,
      "beha": 2712,
      "disease": 2713,
      "spect": 2714,
      "Mer": 2715,
      "fill": 2716,
      "Los": 2717,
      "eye": 2718,
      "quite": 2719,
      "female": 2720,
      "cat": 2721,
      "individ": 2722,
      "pret": 2723,
      "German": 2724,
      "People": 2725,
      "dont": 2726,
      "battle": 2727,
      "Chinese": 2728,
      "din": 2729,
      "mach": 2730,
      "Sir": 2731,
      "itch": 2732,
      "offer": 2733,
      "homes": 2734,
      "built": 2735,
      "request": 2736,
      "pose": 2737,
      "title": 2738,
      "Williams": 2739,
      "continued": 2740,
      "lines": 2741,
      "vert": 2742,
      "mill": 2743,
      "extreme": 2744,
      "onto": 2745,
      "rovers": 2746,
      "sion": 2747,
      "Tur": 2748,
      "recover": 2749,
      "ises": 2750,
      "airport": 2751,
      "common": 2752,
      "data": 2753,
      "quickly": 2754,
      "inary": 2755,
      "repe": 2756,
      "published": 2757,
      "sil": 2758,
      "regular": 2759,
      "weather": 2760,
      "foreign": 2761,
      "cult": 2762,
      "hon": 2763,
      "prep": 2764,
      "occur": 2765,
      "although": 2766,
      "states": 2767,
      "noon": 2768,
      "tract": 2769,
      "appearance": 2770,
      "style": 2771,
      "champion": 2772,
      "berg": 2773,
      "controvers": 2774,
      "refer": 2775,
      "32": 2776,
      "words": 2777,
      "yan": 2778,
      "bridge": 2779,
      "brand": 2780,
      "ti": 2781,
      "Richard": 2782,
      "counter": 2783,
      "instead": 2784,
      "general": 2785,
      "NA": 2786,
      "iled": 2787,
      "administr": 2788,
      "impact": 2789,
      "executive": 2790,
      "entire": 2791,
      "Part": 2792,
      "loved": 2793,
      "ada": 2794,
      "respect": 2795,
      "source": 2796,
      "crew": 2797,
      "appeal": 2798,
      "convicted": 2799,
      "joined": 2800,
      "mult": 2801,
      "opened": 2802,
      "ties": 2803,
      "employe": 2804,
      "VID": 2805,
      "Health": 2806,
      "share": 2807,
      "Port": 2808,
      "fle": 2809,
      "mot": 2810,
      "previously": 2811,
      "ization": 2812,
      "create": 2813,
      "ends": 2814,
      "Despite": 2815,
      "2007": 2816,
      "pred": 2817,
      "immigr": 2818,
      "ently": 2819,
      "icide": 2820,
      "VIDEO": 2821,
      "Offic": 2822,
      "attorney": 2823,
      "90": 2824,
      "ander": 2825,
      "conference": 2826,
      "initial": 2827,
      "surgery": 2828,
      "Ma": 2829,
      "direct": 2830,
      "cep": 2831,
      "gold": 2832,
      "arr": 2833,
      "finding": 2834,
      "inv": 2835,
      "Real": 2836,
      "omet": 2837,
      "behavi": 2838,
      "ado": 2839,
      "Afghanistan": 2840,
      "nu": 2841,
      "financial": 2842,
      "newsp": 2843,
      "actor": 2844,
      "review": 2845,
      "penal": 2846,
      "Muslim": 2847,
      "redu": 2848,
      "poll": 2849,
      "significant": 2850,
      "build": 2851,
      "moving": 2852,
      "photos": 2853,
      "Mill": 2854,
      "33": 2855,
      "Jud": 2856,
      "ique": 2857,
      "attention": 2858,
      "African": 2859,
      "afford": 2860,
      "ech": 2861,
      "passengers": 2862,
      "prosecu": 2863,
      "pregn": 2864,
      "broad": 2865,
      "refused": 2866,
      "tou": 2867,
      "appears": 2868,
      "Goog": 2869,
      "Clin": 2870,
      "Apple": 2871,
      "HS": 2872,
      "Angeles": 2873,
      "recogn": 2874,
      "arch": 2875,
      "ples": 2876,
      "changed": 2877,
      "Rod": 2878,
      "details": 2879,
      "opening": 2880,
      "fected": 2881,
      "tweet": 2882,
      "burn": 2883,
      "Madrid": 2884,
      "Sal": 2885,
      "riff": 2886,
      "emy": 2887,
      "accept": 2888,
      "parts": 2889,
      "passed": 2890,
      "technology": 2891,
      "customers": 2892,
      "load": 2893,
      "insist": 2894,
      "gar": 2895,
      "restaur": 2896,
      "SA": 2897,
      "ert": 2898,
      "sou": 2899,
      "residents": 2900,
      "lived": 2901,
      "demon": 2902,
      "Government": 2903,
      "apparent": 2904,
      "faces": 2905,
      "Ron": 2906,
      "Office": 2907,
      "marriage": 2908,
      "rare": 2909,
      "cup": 2910,
      "believes": 2911,
      "ga": 2912,
      "floor": 2913,
      "remem": 2914,
      "hest": 2915,
      "standing": 2916,
      "exam": 2917,
      "size": 2918,
      "partner": 2919,
      "owned": 2920,
      "fan": 2921,
      "aud": 2922,
      "Sport": 2923,
      "bes": 2924,
      "denied": 2925,
      "response": 2926,
      "Qu": 2927,
      "enger": 2928,
      "Dani": 2929,
      "followed": 2930,
      "damage": 2931,
      "peace": 2932,
      "ively": 2933,
      "growing": 2934,
      "scored": 2935,
      "olf": 2936,
      "itors": 2937,
      "tom": 2938,
      "viron": 2939,
      "scr": 2940,
      "finally": 2941,
      "stone": 2942,
      "Google": 2943,
      "afternoon": 2944,
      "fashion": 2945,
      "Council": 2946,
      "compu": 2947,
      "hous": 2948,
      "jump": 2949,
      "figures": 2950,
      "sof": 2951,
      "contain": 2952,
      "raised": 2953,
      "hundreds": 2954,
      "results": 2955,
      "escap": 2956,
      "wedding": 2957,
      "conditions": 2958,
      "perfect": 2959,
      "rate": 2960,
      "rout": 2961,
      "actions": 2962,
      "lu": 2963,
      "Mag": 2964,
      "probab": 2965,
      "card": 2966,
      "Cong": 2967,
      "traff": 2968,
      "cially": 2969,
      "Ter": 2970,
      "seems": 2971,
      "ably": 2972,
      "Center": 2973,
      "emergency": 2974,
      "grad": 2975,
      "isn": 2976,
      "towards": 2977,
      "shown": 2978,
      "Sto": 2979,
      "missed": 2980,
      "herself": 2981,
      "companies": 2982,
      "cris": 2983,
      "served": 2984,
      "emerged": 2985,
      "erson": 2986,
      "irt": 2987,
      "boys": 2988,
      "rupt": 2989,
      "largest": 2990,
      "cing": 2991,
      "Jackson": 2992,
      "plant": 2993,
      "ect": 2994,
      "agreed": 2995,
      "spoke": 2996,
      "Online": 2997,
      "deliver": 2998,
      "squad": 2999,
      "ordered": 3000,
      "tru": 3001,
      "signed": 3002,
      "consider": 3003,
      "iving": 3004,
      "avoid": 3005,
      "goes": 3006,
      "ender": 3007,
      "clean": 3008,
      "Johnson": 3009,
      "Spain": 3010,
      "striker": 3011,
      "Mexico": 3012,
      "ural": 3013,
      "events": 3014,
      "irst": 3015,
      "launch": 3016,
      "Louis": 3017,
      "Scotland": 3018,
      "candid": 3019,
      "spending": 3020,
      "iger": 3021,
      "closed": 3022,
      "Korea": 3023,
      "kids": 3024,
      "coast": 3025,
      "India": 3026,
      "William": 3027,
      "Carol": 3028,
      "border": 3029,
      "astic": 3030,
      "allegations": 3031,
      "industry": 3032,
      "probably": 3033,
      "sleep": 3034,
      "either": 3035,
      "akes": 3036,
      "gets": 3037,
      "Sim": 3038,
      "poor": 3039,
      "ancy": 3040,
      "Jose": 3041,
      "offered": 3042,
      "Jones": 3043,
      "cue": 3044,
      "Sw": 3045,
      "Kim": 3046,
      "television": 3047,
      "pointed": 3048,
      "unable": 3049,
      "36": 3050,
      "cash": 3051,
      "economic": 3052,
      "Every": 3053,
      "alone": 3054,
      "ked": 3055,
      "base": 3056,
      "ceed": 3057,
      "increase": 3058,
      "adium": 3059,
      "showing": 3060,
      "surround": 3061,
      "ears": 3062,
      "questions": 3063,
      "demonstr": 3064,
      "oil": 3065,
      "council": 3066,
      "snow": 3067,
      "evening": 3068,
      "eyes": 3069,
      "amount": 3070,
      "secret": 3071,
      "II": 3072,
      "stopped": 3073,
      "natur": 3074,
      "engine": 3075,
      "Bur": 3076,
      "indic": 3077,
      "34": 3078,
      "performance": 3079,
      "dangerous": 3080,
      "troops": 3081,
      "aware": 3082,
      "broke": 3083,
      "ini": 3084,
      "ension": 3085,
      "ample": 3086,
      "antic": 3087,
      "reportedly": 3088,
      "clus": 3089,
      "inated": 3090,
      "Republican": 3091,
      "drive": 3092,
      "stra": 3093,
      "animal": 3094,
      "calling": 3095,
      "Congress": 3096,
      "document": 3097,
      "happen": 3098,
      "sec": 3099,
      "issued": 3100,
      "dre": 3101,
      "skin": 3102,
      "focus": 3103,
      "captain": 3104,
      "Dis": 3105,
      "designed": 3106,
      "Mel": 3107,
      "Queen": 3108,
      "espe": 3109,
      "mater": 3110,
      "Times": 3111,
      "treated": 3112,
      "animals": 3113,
      "Wales": 3114,
      "especially": 3115,
      "bon": 3116,
      "touch": 3117,
      "Gener": 3118,
      "forts": 3119,
      "simply": 3120,
      "tick": 3121,
      "written": 3122,
      "nearby": 3123,
      "aked": 3124,
      "tori": 3125,
      "ili": 3126,
      "lose": 3127,
      "lack": 3128,
      "changes": 3129,
      "jury": 3130,
      "adding": 3131,
      "independ": 3132,
      "energy": 3133,
      "attempt": 3134,
      "armed": 3135,
      "exc": 3136,
      "cohol": 3137,
      "related": 3138,
      "Ano": 3139,
      "advis": 3140,
      "hear": 3141,
      "Clinton": 3142,
      "La": 3143,
      "hero": 3144,
      "encour": 3145,
      "anta": 3146,
      "iction": 3147,
      "uty": 3148,
      "aming": 3149,
      "ories": 3150,
      "Ukrain": 3151,
      "bell": 3152,
      "ption": 3153,
      "intro": 3154,
      "girlfriend": 3155,
      "orry": 3156,
      "challenge": 3157,
      "defin": 3158,
      "considered": 3159,
      "fund": 3160,
      "mobile": 3161,
      "travell": 3162,
      "Another": 3163,
      "diag": 3164,
      "middle": 3165,
      "rob": 3166,
      "sequ": 3167,
      "ami": 3168,
      "Our": 3169,
      "rise": 3170,
      "prov": 3171,
      "Watch": 3172,
      "global": 3173,
      "sens": 3174,
      "Of": 3175,
      "37": 3176,
      "abl": 3177,
      "Robert": 3178,
      "broken": 3179,
      "warning": 3180,
      "aed": 3181,
      "lawyer": 3182,
      "via": 3183,
      "mates": 3184,
      "fellow": 3185,
      "197": 3186,
      "costs": 3187,
      "Far": 3188,
      "introdu": 3189,
      "rey": 3190,
      "ountain": 3191,
      "suffering": 3192,
      "anda": 3193,
      "soldiers": 3194,
      "speech": 3195,
      "newspaper": 3196,
      "Law": 3197,
      "favour": 3198,
      "iet": 3199,
      "citiz": 3200,
      "owners": 3201,
      "gers": 3202,
      "Atl": 3203,
      "Sand": 3204,
      "emot": 3205,
      "remember": 3206,
      "istic": 3207,
      "footage": 3208,
      "Def": 3209,
      "moder": 3210,
      "word": 3211,
      "Author": 3212,
      "Many": 3213,
      "Bill": 3214,
      "award": 3215,
      "figure": 3216,
      "inger": 3217,
      "inson": 3218,
      "trou": 3219,
      "300": 3220,
      "experts": 3221,
      "Gar": 3222,
      "wait": 3223,
      "zer": 3224,
      "Mary": 3225,
      "fa": 3226,
      "managed": 3227,
      "quality": 3228,
      "Green": 3229,
      "Paris": 3230,
      "spread": 3231,
      "anish": 3232,
      "resear": 3233,
      "effort": 3234,
      "yl": 3235,
      "sentenced": 3236,
      "alter": 3237,
      "Crown": 3238,
      "iles": 3239,
      "han": 3240,
      "schools": 3241,
      "rol": 3242,
      "illa": 3243,
      "center": 3244,
      "economy": 3245,
      "diagno": 3246,
      "accep": 3247,
      "igence": 3248,
      "responsible": 3249,
      "gain": 3250,
      "efforts": 3251,
      "uk": 3252,
      "perform": 3253,
      "jailed": 3254,
      "trust": 3255,
      "character": 3256,
      "bought": 3257,
      "bass": 3258,
      "formed": 3259,
      "blue": 3260,
      "rief": 3261,
      "agement": 3262,
      "Daniel": 3263,
      "Egy": 3264,
      "holding": 3265,
      "Van": 3266,
      "photograp": 3267,
      "ems": 3268,
      "bey": 3269,
      "arms": 3270,
      "piece": 3271,
      "During": 3272,
      "check": 3273,
      "cop": 3274,
      "azine": 3275,
      "seeing": 3276,
      "weapons": 3277,
      "movie": 3278,
      "eper": 3279,
      "struck": 3280,
      "Italy": 3281,
      "38": 3282,
      "cred": 3283,
      "struct": 3284,
      "opportunity": 3285,
      "central": 3286,
      "lower": 3287,
      "ray": 3288,
      "spend": 3289,
      "Sur": 3290,
      "Andrew": 3291,
      "crisis": 3292,
      "church": 3293,
      "agre": 3294,
      "Bal": 3295,
      "save": 3296,
      "Thomas": 3297,
      "aches": 3298,
      "orters": 3299,
      "screen": 3300,
      "Egypt": 3301,
      "alcohol": 3302,
      "Pakistan": 3303,
      "Other": 3304,
      "airs": 3305,
      "iful": 3306,
      "normal": 3307,
      "typ": 3308,
      "true": 3309,
      "aircraft": 3310,
      "charity": 3311,
      "concerns": 3312,
      "twice": 3313,
      "attract": 3314,
      "fourth": 3315,
      "neighbor": 3316,
      "pup": 3317,
      "liament": 3318,
      "isters": 3319,
      "ram": 3320,
      "opin": 3321,
      "carrying": 3322,
      "Ash": 3323,
      "47": 3324,
      "quarter": 3325,
      "increasing": 3326,
      "phen": 3327,
      "jected": 3328,
      "temper": 3329,
      "lay": 3330,
      "pulled": 3331,
      "reporters": 3332,
      "Lee": 3333,
      "stab": 3334,
      "determin": 3335,
      "stars": 3336,
      "successful": 3337,
      "atory": 3338,
      "mate": 3339,
      "Super": 3340,
      "55": 3341,
      "Even": 3342,
      "Former": 3343,
      "pon": 3344,
      "feed": 3345,
      "defeat": 3346,
      "exact": 3347,
      "2006": 3348,
      "Sar": 3349,
      "rules": 3350,
      "streets": 3351,
      "owing": 3352,
      "ampton": 3353,
      "wild": 3354,
      "Arab": 3355,
      "Islamic": 3356,
      "ta": 3357,
      "ucky": 3358,
      "severe": 3359,
      "terms": 3360,
      "eventually": 3361,
      "Wood": 3362,
      "completely": 3363,
      "comfort": 3364,
      "doz": 3365,
      "iny": 3366,
      "higher": 3367,
      "telling": 3368,
      "Today": 3369,
      "gard": 3370,
      "heavy": 3371,
      "48": 3372,
      "Barack": 3373,
      "ador": 3374,
      "conduct": 3375,
      "Vir": 3376,
      "ba": 3377,
      "incredi": 3378,
      "sale": 3379,
      "penalty": 3380,
      "ometimes": 3381,
      "itche": 3382,
      "competition": 3383,
      "Ital": 3384,
      "Although": 3385,
      "paper": 3386,
      "insur": 3387,
      "improve": 3388,
      "glass": 3389,
      "fine": 3390,
      "particularly": 3391,
      "dogs": 3392,
      "remark": 3393,
      "Justice": 3394,
      "Champions": 3395,
      "wound": 3396,
      "meant": 3397,
      "crowd": 3398,
      "necess": 3399,
      "Det": 3400,
      "environ": 3401,
      "General": 3402,
      "scor": 3403,
      "attacked": 3404,
      "reached": 3405,
      "strugg": 3406,
      "fired": 3407,
      "quir": 3408,
      "millions": 3409,
      "aine": 3410,
      "stitute": 3411,
      "Press": 3412,
      "pping": 3413,
      "iced": 3414,
      "ensure": 3415,
      "Barcel": 3416,
      "asking": 3417,
      "levels": 3418,
      "gang": 3419,
      "NHS": 3420,
      "straight": 3421,
      "istry": 3422,
      "God": 3423,
      "unch": 3424,
      "winner": 3425,
      "justice": 3426,
      "ift": 3427,
      "relig": 3428,
      "removed": 3429,
      "anks": 3430,
      "oph": 3431,
      "44": 3432,
      "angu": 3433,
      "Army": 3434,
      "oul": 3435,
      "push": 3436,
      "Jon": 3437,
      "Franc": 3438,
      "39": 3439,
      "08": 3440,
      "bud": 3441,
      "Under": 3442,
      "uled": 3443,
      "decades": 3444,
      "doll": 3445,
      "version": 3446,
      "highest": 3447,
      "walking": 3448,
      "Barcelona": 3449,
      "send": 3450,
      "transfer": 3451,
      "fee": 3452,
      "eat": 3453,
      "hopes": 3454,
      "bodies": 3455,
      "song": 3456,
      "claiming": 3457,
      "wouldn": 3458,
      "establ": 3459,
      "flood": 3460,
      "Syd": 3461,
      "rif": 3462,
      "deaths": 3463,
      "Hel": 3464,
      "numbers": 3465,
      "dig": 3466,
      "display": 3467,
      "faced": 3468,
      "wonder": 3469,
      "circ": 3470,
      "captured": 3471,
      "material": 3472,
      "waiting": 3473,
      "ilities": 3474,
      "azing": 3475,
      "fighters": 3476,
      "mouth": 3477,
      "unk": 3478,
      "associ": 3479,
      "usual": 3480,
      "selling": 3481,
      "Tal": 3482,
      "ites": 3483,
      "Mat": 3484,
      "storm": 3485,
      "var": 3486,
      "plead": 3487,
      "influ": 3488,
      "collection": 3489,
      "hib": 3490,
      "expressed": 3491,
      "42": 3492,
      "regard": 3493,
      "Harry": 3494,
      "double": 3495,
      "Judge": 3496,
      "products": 3497,
      "sense": 3498,
      "Francis": 3499,
      "wealth": 3500,
      "throughout": 3501,
      "suicide": 3502,
      "gling": 3503,
      "196": 3504,
      "boat": 3505,
      "atures": 3506,
      "administration": 3507,
      "First": 3508,
      "Ass": 3509,
      "supporters": 3510,
      "nes": 3511,
      "raise": 3512,
      "Old": 3513,
      "psy": 3514,
      "attend": 3515,
      "green": 3516,
      "repeated": 3517,
      "Union": 3518,
      "century": 3519,
      "documents": 3520,
      "communic": 3521,
      "struction": 3522,
      "ours": 3523,
      "Sydney": 3524,
      "Bor": 3525,
      "talking": 3526,
      "prosecut": 3527,
      "seas": 3528,
      "jobs": 3529,
      "Steve": 3530,
      "tourn": 3531,
      "resh": 3532,
      "ider": 3533,
      "dropped": 3534,
      "bedroom": 3535,
      "boo": 3536,
      "includes": 3537,
      "itself": 3538,
      "sales": 3539,
      "natural": 3540,
      "network": 3541,
      "cerem": 3542,
      "nuclear": 3543,
      "Jim": 3544,
      "ski": 3545,
      "hun": 3546,
      "swim": 3547,
      "Italian": 3548,
      "pretty": 3549,
      "rend": 3550,
      "Since": 3551,
      "zz": 3552,
      "original": 3553,
      "defense": 3554,
      "swe": 3555,
      "facing": 3556,
      "MailOnline": 3557,
      "teams": 3558,
      "Service": 3559,
      "older": 3560,
      "sche": 3561,
      "handed": 3562,
      "Good": 3563,
      "Camp": 3564,
      "ests": 3565,
      "male": 3566,
      "stant": 3567,
      "ISIS": 3568,
      "alongside": 3569,
      "BI": 3570,
      "continues": 3571,
      "computer": 3572,
      "stun": 3573,
      "names": 3574,
      "otel": 3575,
      "stitut": 3576,
      "intell": 3577,
      "population": 3578,
      "planning": 3579,
      "filed": 3580,
      "Den": 3581,
      "places": 3582,
      "castle": 3583,
      "planned": 3584,
      "apolog": 3585,
      "example": 3586,
      "Earth": 3587,
      "education": 3588,
      "positive": 3589,
      "sports": 3590,
      "doub": 3591,
      "worst": 3592,
      "nel": 3593,
      "exist": 3594,
      "reasons": 3595,
      "Argent": 3596,
      "seat": 3597,
      "island": 3598,
      "Senate": 3599,
      "dark": 3600,
      "Both": 3601,
      "ils": 3602,
      "inno": 3603,
      "destro": 3604,
      "apartment": 3605,
      "Spanish": 3606,
      "49": 3607,
      "gree": 3608,
      "gs": 3609,
      "massive": 3610,
      "fly": 3611,
      "spl": 3612,
      "hang": 3613,
      "aste": 3614,
      "presidential": 3615,
      "illegal": 3616,
      "fielder": 3617,
      "abor": 3618,
      "messages": 3619,
      "Act": 3620,
      "spark": 3621,
      "icles": 3622,
      "ya": 3623,
      "smart": 3624,
      "advert": 3625,
      "haps": 3626,
      "appropri": 3627,
      "prim": 3628,
      "46": 3629,
      "ights": 3630,
      "dad": 3631,
      "concerned": 3632,
      "gay": 3633,
      "Holly": 3634,
      "owers": 3635,
      "Wal": 3636,
      "Web": 3637,
      "Virgin": 3638,
      "feeling": 3639,
      "Str": 3640,
      "ips": 3641,
      "league": 3642,
      "majority": 3643,
      "Ga": 3644,
      "oked": 3645,
      "Post": 3646,
      "becoming": 3647,
      "custody": 3648,
      "Victo": 3649,
      "Fin": 3650,
      "slow": 3651,
      "compared": 3652,
      "anch": 3653,
      "strike": 3654,
      "Nick": 3655,
      "Security": 3656,
      "iding": 3657,
      "degree": 3658,
      "type": 3659,
      "magazine": 3660,
      "Middle": 3661,
      "thes": 3662,
      "hum": 3663,
      "watching": 3664,
      "comed": 3665,
      "Bir": 3666,
      "lic": 3667,
      "easy": 3668,
      "shut": 3669,
      "Pri": 3670,
      "chairman": 3671,
      "iple": 3672,
      "acked": 3673,
      "From": 3674,
      "below": 3675,
      "veter": 3676,
      "giant": 3677,
      "benefits": 3678,
      "stag": 3679,
      "Di": 3680,
      "mir": 3681,
      "teenager": 3682,
      "devast": 3683,
      "ruled": 3684,
      "era": 3685,
      "department": 3686,
      "Wat": 3687,
      "flag": 3688,
      "fish": 3689,
      "prior": 3690,
      "Star": 3691,
      "ience": 3692,
      "beautiful": 3693,
      "Lew": 3694,
      "guard": 3695,
      "McC": 3696,
      "restaurant": 3697,
      "suggested": 3698,
      "professional": 3699,
      "internet": 3700,
      "Bu": 3701,
      "helping": 3702,
      "09": 3703,
      "isl": 3704,
      "Resear": 3705,
      "occas": 3706,
      "Most": 3707,
      "subject": 3708,
      "Del": 3709,
      "bly": 3710,
      "iev": 3711,
      "Georg": 3712,
      "gry": 3713,
      "va": 3714,
      "breaking": 3715,
      "starting": 3716,
      "pin": 3717,
      "reli": 3718,
      "healthy": 3719,
      "Then": 3720,
      "Frank": 3721,
      "losing": 3722,
      "shared": 3723,
      "whom": 3724,
      "progress": 3725,
      "Chief": 3726,
      "estimated": 3727,
      "ctors": 3728,
      "neighbour": 3729,
      "causing": 3730,
      "approach": 3731,
      "development": 3732,
      "discover": 3733,
      "impress": 3734,
      "unders": 3735,
      "Met": 3736,
      "fied": 3737,
      "ka": 3738,
      "ville": 3739,
      "iling": 3740,
      "features": 3741,
      "oo": 3742,
      "insp": 3743,
      "spotted": 3744,
      "Open": 3745,
      "absol": 3746,
      "umb": 3747,
      "Commission": 3748,
      "announce": 3749,
      "Ryan": 3750,
      "Tim": 3751,
      "beach": 3752,
      "07": 3753,
      "Ve": 3754,
      "sort": 3755,
      "truck": 3756,
      "ernand": 3757,
      "rape": 3758,
      "Big": 3759,
      "scientists": 3760,
      "useum": 3761,
      "affected": 3762,
      "Syrian": 3763,
      "?'": 3764,
      "device": 3765,
      "agers": 3766,
      "laws": 3767,
      "43": 3768,
      "midfielder": 3769,
      "aps": 3770,
      "stick": 3771,
      "histor": 3772,
      "ustr": 3773,
      "Party": 3774,
      "talks": 3775,
      "usually": 3776,
      "Kel": 3777,
      "bury": 3778,
      "Olympic": 3779,
      "Kar": 3780,
      "absolute": 3781,
      "bow": 3782,
      "kno": 3783,
      "certainly": 3784,
      "ements": 3785,
      "sound": 3786,
      "spokeswoman": 3787,
      "41": 3788,
      "Association": 3789,
      "Tay": 3790,
      "fare": 3791,
      "Gold": 3792,
      "rick": 3793,
      "linked": 3794,
      "Speaking": 3795,
      "freed": 3796,
      "Dar": 3797,
      "06": 3798,
      "lets": 3799,
      "2005": 3800,
      "rig": 3801,
      "ape": 3802,
      "sons": 3803,
      "sole": 3804,
      "99": 3805,
      "Oh": 3806,
      "active": 3807,
      "receive": 3808,
      "Child": 3809,
      "annual": 3810,
      "block": 3811,
      "walked": 3812,
      "apparently": 3813,
      "researchers": 3814,
      "Lord": 3815,
      "Rad": 3816,
      "putting": 3817,
      "ield": 3818,
      "iment": 3819,
      "particip": 3820,
      "committed": 3821,
      "traffic": 3822,
      "didnt": 3823,
      "andal": 3824,
      "sky": 3825,
      "opposition": 3826,
      "vor": 3827,
      "auto": 3828,
      "pleaded": 3829,
      "xim": 3830,
      "controversial": 3831,
      "window": 3832,
      "modern": 3833,
      "minor": 3834,
      "keeper": 3835,
      "Comm": 3836,
      "Grand": 3837,
      "langu": 3838,
      "tack": 3839,
      "Som": 3840,
      "proud": 3841,
      "phones": 3842,
      "Ari": 3843,
      "400": 3844,
      "records": 3845,
      "serving": 3846,
      "investigators": 3847,
      "sched": 3848,
      "village": 3849,
      "estic": 3850,
      "nur": 3851,
      "flying": 3852,
      "omen": 3853,
      "':": 3854,
      "Tri": 3855,
      "CC": 3856,
      "Distr": 3857,
      "rescue": 3858,
      "lad": 3859,
      "insisted": 3860,
      "stress": 3861,
      "choice": 3862,
      "prin": 3863,
      "ological": 3864,
      "suspended": 3865,
      "native": 3866,
      "Mac": 3867,
      "maintain": 3868,
      "myself": 3869,
      "extremely": 3870,
      "EU": 3871,
      "ez": 3872,
      "inho": 3873,
      "tournament": 3874,
      "eating": 3875,
      "Prof": 3876,
      "Their": 3877,
      "annel": 3878,
      "Sus": 3879,
      "fest": 3880,
      "Christian": 3881,
      "sters": 3882,
      "Ever": 3883,
      "Sci": 3884,
      "FBI": 3885,
      "promot": 3886,
      "runs": 3887,
      "Fam": 3888,
      "suspic": 3889,
      "occurred": 3890,
      "confl": 3891,
      "explained": 3892,
      "lux": 3893,
      "fortun": 3894,
      "violent": 3895,
      "boyfriend": 3896,
      "provided": 3897,
      "thinking": 3898,
      "drop": 3899,
      "Bush": 3900,
      "mous": 3901,
      "collap": 3902,
      "Mean": 3903,
      "pounds": 3904,
      "clearly": 3905,
      "erc": 3906,
      "debate": 3907,
      "utch": 3908,
      "stren": 3909,
      "Charles": 3910,
      "suspected": 3911,
      "fant": 3912,
      "Hen": 3913,
      "River": 3914,
      "mail": 3915,
      "ission": 3916,
      "patient": 3917,
      "reform": 3918,
      "learn": 3919,
      "cold": 3920,
      "dict": 3921,
      "rug": 3922,
      "serve": 3923,
      "cities": 3924,
      "catch": 3925,
      "sick": 3926,
      "bath": 3927,
      "specific": 3928,
      "Hall": 3929,
      "Sil": 3930,
      "Three": 3931,
      "shirt": 3932,
      "05": 3933,
      "ito": 3934,
      "ateg": 3935,
      "pled": 3936,
      "decade": 3937,
      "oned": 3938,
      "acqu": 3939,
      "signs": 3940,
      "brief": 3941,
      "forcement": 3942,
      "Ker": 3943,
      "Joe": 3944,
      "sets": 3945,
      "Church": 3946,
      "banned": 3947,
      "lock": 3948,
      "Rober": 3949,
      "attended": 3950,
      "items": 3951,
      "Murray": 3952,
      "prices": 3953,
      "mix": 3954,
      ".,": 3955,
      "symp": 3956,
      "dram": 3957,
      "flat": 3958,
      "Tot": 3959,
      "bling": 3960,
      "RE": 3961,
      "seemed": 3962,
      "Ir": 3963,
      "pregnant": 3964,
      "investigating": 3965,
      "attempted": 3966,
      "Kent": 3967,
      "Newcastle": 3968,
      "tough": 3969,
      "reality": 3970,
      "servative": 3971,
      "rich": 3972,
      "Ire": 3973,
      "len": 3974,
      "apping": 3975,
      "75": 3976,
      "Shar": 3977,
      "ceremony": 3978,
      "tree": 3979,
      "article": 3980,
      "affect": 3981,
      "hoping": 3982,
      "lights": 3983,
      "bail": 3984,
      "Cur": 3985,
      "clubs": 3986,
      "Ty": 3987,
      "enjoy": 3988,
      "views": 3989,
      "neck": 3990,
      "employees": 3991,
      "Meanwhile": 3992,
      "igan": 3993,
      "sight": 3994,
      "loan": 3995,
      "university": 3996,
      "rep": 3997,
      "District": 3998,
      "Palace": 3999,
      "Colle": 4000,
      "makers": 4001,
      "Boston": 4002,
      "hi": 4003,
      "agic": 4004,
      "worker": 4005,
      "vention": 4006,
      "medic": 4007,
      "sitting": 4008,
      "controll": 4009,
      "ena": 4010,
      "discuss": 4011,
      "traditional": 4012,
      "streng": 4013,
      "Tor": 4014,
      "pilot": 4015,
      "fraud": 4016,
      "ula": 4017,
      "clin": 4018,
      "Ev": 4019,
      "breast": 4020,
      "transport": 4021,
      "Champion": 4022,
      "Indian": 4023,
      "Qaed": 4024,
      "bottom": 4025,
      "photographer": 4026,
      "aret": 4027,
      "Home": 4028,
      "watched": 4029,
      "Mass": 4030,
      "practice": 4031,
      "grab": 4032,
      "sometimes": 4033,
      "Wel": 4034,
      "birthday": 4035,
      "college": 4036,
      "san": 4037,
      "developed": 4038,
      "agreement": 4039,
      "intelligence": 4040,
      "Ram": 4041,
      "Qaeda": 4042,
      "fresh": 4043,
      "object": 4044,
      "nom": 4045,
      "temp": 4046,
      "Hor": 4047,
      "icop": 4048,
      "CA": 4049,
      "Down": 4050,
      "resol": 4051,
      "broadcast": 4052,
      "ruling": 4053,
      "Dun": 4054,
      "....": 4055,
      "speaking": 4056,
      "Brad": 4057,
      "Over": 4058,
      "crimes": 4059,
      "angers": 4060,
      "ude": 4061,
      "singer": 4062,
      "kins": 4063,
      "amazing": 4064,
      "disap": 4065,
      "Island": 4066,
      "scoring": 4067,
      "reser": 4068,
      "shortly": 4069,
      "motor": 4070,
      "Eli": 4071,
      "goti": 4072,
      "ulted": 4073,
      "rebel": 4074,
      "knows": 4075,
      "ON": 4076,
      "increased": 4077,
      "keeping": 4078,
      "Bob": 4079,
      "scheduled": 4080,
      "fuel": 4081,
      "Bank": 4082,
      "Chic": 4083,
      "terrorist": 4084,
      "2004": 4085,
      "Ze": 4086,
      "deli": 4087,
      "Mike": 4088,
      "tenham": 4089,
      "52": 4090,
      "Brook": 4091,
      "ifth": 4092,
      "cean": 4093,
      "Fore": 4094,
      "thy": 4095,
      "operations": 4096,
      "prosecutors": 4097,
      "tweeted": 4098,
      "Taylor": 4099,
      "Jersey": 4100,
      "confident": 4101,
      "psych": 4102,
      "beyond": 4103,
      "hose": 4104,
      "Cost": 4105,
      "mph": 4106,
      "profile": 4107,
      "Read": 4108,
      "powerful": 4109,
      "Pre": 4110,
      "appropriate": 4111,
      "alive": 4112,
      "bola": 4113,
      "answer": 4114,
      "visited": 4115,
      "neg": 4116,
      "Pet": 4117,
      "younger": 4118,
      "finished": 4119,
      "resign": 4120,
      "hurt": 4121,
      "cou": 4122,
      "radio": 4123,
      "note": 4124,
      "origin": 4125,
      "ayed": 4126,
      "growth": 4127,
      "seconds": 4128,
      "shock": 4129,
      "mad": 4130,
      "Well": 4131,
      "Ukraine": 4132,
      "seeking": 4133,
      "beginning": 4134,
      "Moham": 4135,
      "Sarah": 4136,
      "value": 4137,
      "burg": 4138,
      "picked": 4139,
      "Coast": 4140,
      "?\"": 4141,
      "imag": 4142,
      "district": 4143,
      "meaning": 4144,
      "govern": 4145,
      "rank": 4146,
      "immigration": 4147,
      "Penn": 4148,
      "determined": 4149,
      "exerc": 4150,
      "arian": 4151,
      "legisl": 4152,
      "cul": 4153,
      "iPh": 4154,
      "drinking": 4155,
      "individual": 4156,
      "purch": 4157,
      "behaviour": 4158,
      "setting": 4159,
      "gus": 4160,
      "venue": 4161,
      "domestic": 4162,
      "Follow": 4163,
      "arily": 4164,
      "ni": 4165,
      "aire": 4166,
      "holds": 4167,
      "initially": 4168,
      "Group": 4169,
      "scen": 4170,
      "negoti": 4171,
      "favor": 4172,
      "Here": 4173,
      "sad": 4174,
      "exactly": 4175,
      "artist": 4176,
      "Korean": 4177,
      "highly": 4178,
      "ships": 4179,
      "alys": 4180,
      "mile": 4181,
      "politic": 4182,
      "Kate": 4183,
      "northern": 4184,
      "agues": 4185,
      "Republicans": 4186,
      "Wall": 4187,
      "recomm": 4188,
      "ledge": 4189,
      "survey": 4190,
      "Holl": 4191,
      "Fox": 4192,
      "56": 4193,
      "Kat": 4194,
      "text": 4195,
      "Common": 4196,
      "eral": 4197,
      "RA": 4198,
      "obvious": 4199,
      "Fire": 4200,
      "shots": 4201,
      "dated": 4202,
      "laugh": 4203,
      "parties": 4204,
      "diagnosed": 4205,
      "Ha": 4206,
      "thered": 4207,
      "Ebola": 4208,
      "rog": 4209,
      "Victoria": 4210,
      "cab": 4211,
      "Hollywood": 4212,
      "Prose": 4213,
      "rough": 4214,
      "remained": 4215,
      "Stephen": 4216,
      "icon": 4217,
      "blog": 4218,
      "defender": 4219,
      "detect": 4220,
      "yes": 4221,
      "evin": 4222,
      "thanks": 4223,
      "hall": 4224,
      "commission": 4225,
      "phy": 4226,
      "mountain": 4227,
      "consum": 4228,
      "steps": 4229,
      "path": 4230,
      "Georgia": 4231,
      "ola": 4232,
      "aker": 4233,
      "Cle": 4234,
      "accus": 4235,
      "Liby": 4236,
      "heav": 4237,
      "oking": 4238,
      "Authorities": 4239,
      "protesters": 4240,
      "harm": 4241,
      "actress": 4242,
      "Ko": 4243,
      "aries": 4244,
      "Put": 4245,
      "wheel": 4246,
      "books": 4247,
      "Sol": 4248,
      "Sky": 4249,
      "53": 4250,
      "Cast": 4251,
      "activity": 4252,
      "tests": 4253,
      "learned": 4254,
      "prepared": 4255,
      "essed": 4256,
      "ota": 4257,
      "Matt": 4258,
      "visitors": 4259,
      "deser": 4260,
      "user": 4261,
      "southern": 4262,
      "Ireland": 4263,
      "session": 4264,
      "Youn": 4265,
      "Up": 4266,
      "Chicago": 4267,
      "movement": 4268,
      "mond": 4269,
      "tic": 4270,
      "culture": 4271,
      "ilton": 4272,
      "upon": 4273,
      "ultim": 4274,
      "concern": 4275,
      "toms": 4276,
      "proced": 4277,
      "measures": 4278,
      "Way": 4279,
      "voice": 4280,
      "desper": 4281,
      "amid": 4282,
      "arez": 4283,
      "challeng": 4284,
      "wing": 4285,
      "fal": 4286,
      "150": 4287,
      "wick": 4288,
      "Anth": 4289,
      "leng": 4290,
      "responsibility": 4291,
      "matches": 4292,
      "Harris": 4293,
      "helicop": 4294,
      "Tube": 4295,
      "pitch": 4296,
      "Trans": 4297,
      "file": 4298,
      "Ra": 4299,
      "Democratic": 4300,
      "physical": 4301,
      "necessary": 4302,
      "addition": 4303,
      "doubt": 4304,
      "location": 4305,
      "Airport": 4306,
      "convers": 4307,
      "lyn": 4308,
      "threatened": 4309,
      "Gree": 4310,
      "collect": 4311,
      "bin": 4312,
      "commer": 4313,
      "multiple": 4314,
      "ero": 4315,
      "eless": 4316,
      "vehicles": 4317,
      "kidn": 4318,
      "rage": 4319,
      "Simon": 4320,
      "conflict": 4321,
      "Tony": 4322,
      "yell": 4323,
      "bott": 4324,
      "shocked": 4325,
      "spoken": 4326,
      "!'": 4327,
      "instru": 4328,
      "committee": 4329,
      "ieve": 4330,
      "ett": 4331,
      "agedy": 4332,
      "scandal": 4333,
      "Road": 4334,
      "Israeli": 4335,
      "propos": 4336,
      "separate": 4337,
      "prepar": 4338,
      "Those": 4339,
      "earth": 4340,
      "ala": 4341,
      "oured": 4342,
      "stands": 4343,
      "Games": 4344,
      "anted": 4345,
      "dream": 4346,
      "izing": 4347,
      "Great": 4348,
      "Invest": 4349,
      "uals": 4350,
      "budget": 4351,
      "expensive": 4352,
      "complex": 4353,
      "circum": 4354,
      "fix": 4355,
      "eds": 4356,
      "Die": 4357,
      "legs": 4358,
      "society": 4359,
      "ses": 4360,
      "54": 4361,
      "belong": 4362,
      "estate": 4363,
      "da": 4364,
      "shel": 4365,
      "regul": 4366,
      "aling": 4367,
      "paying": 4368,
      "gives": 4369,
      "ife": 4370,
      "Lam": 4371,
      "videos": 4372,
      "ases": 4373,
      "enforcement": 4374,
      "Mour": 4375,
      "mes": 4376,
      "wins": 4377,
      "itt": 4378,
      "breath": 4379,
      "required": 4380,
      "rooms": 4381,
      "ordan": 4382,
      "stitution": 4383,
      "beaten": 4384,
      "Western": 4385,
      "attle": 4386,
      "drivers": 4387,
      "Foot": 4388,
      "Commit": 4389,
      "Wilson": 4390,
      "acts": 4391,
      "Liber": 4392,
      "simple": 4393,
      "Mess": 4394,
      "crack": 4395,
      "worse": 4396,
      "ously": 4397,
      "daily": 4398,
      "fled": 4399,
      "Beck": 4400,
      "Haw": 4401,
      "Profess": 4402,
      "Why": 4403,
      "warm": 4404,
      "stances": 4405,
      "Sa": 4406,
      "deput": 4407,
      "57": 4408,
      "LA": 4409,
      "fifth": 4410,
      "ctic": 4411,
      "Dev": 4412,
      "ki": 4413,
      "PR": 4414,
      "programme": 4415,
      "sites": 4416,
      "various": 4417,
      "FI": 4418,
      "bear": 4419,
      "regime": 4420,
      "protests": 4421,
      "51": 4422,
      "ires": 4423,
      "reck": 4424,
      "organization": 4425,
      "ders": 4426,
      "winter": 4427,
      "mical": 4428,
      "hat": 4429,
      "Anthony": 4430,
      "expert": 4431,
      "disput": 4432,
      "divor": 4433,
      "duty": 4434,
      "memor": 4435,
      "sud": 4436,
      "bra": 4437,
      "Gaal": 4438,
      "inspired": 4439,
      "04": 4440,
      "acted": 4441,
      "recorded": 4442,
      "ibly": 4443,
      "58": 4444,
      "bound": 4445,
      "Jenn": 4446,
      "Carolina": 4447,
      "consc": 4448,
      "guy": 4449,
      "fection": 4450,
      "journey": 4451,
      "bom": 4452,
      "seriously": 4453,
      "hole": 4454,
      "ordinary": 4455,
      "voters": 4456,
      "sides": 4457,
      "ancing": 4458,
      "language": 4459,
      "critical": 4460,
      "Ba": 4461,
      "tribut": 4462,
      "Jew": 4463,
      "promp": 4464,
      "iban": 4465,
      "partners": 4466,
      "ids": 4467,
      "absolutely": 4468,
      "encing": 4469,
      "Tottenham": 4470,
      "inde": 4471,
      "celebrate": 4472,
      "clothes": 4473,
      "Andy": 4474,
      "aze": 4475,
      "BA": 4476,
      "produced": 4477,
      "shopping": 4478,
      "59": 4479,
      "applic": 4480,
      "Canada": 4481,
      "stret": 4482,
      "athan": 4483,
      "Year": 4484,
      "finish": 4485,
      "iff": 4486,
      "sources": 4487,
      "Taliban": 4488,
      "Lewis": 4489,
      "Steven": 4490,
      "toward": 4491,
      "Gra": 4492,
      "illness": 4493,
      "log": 4494,
      "unte": 4495,
      "bac": 4496,
      "Gor": 4497,
      "mort": 4498,
      "perhaps": 4499,
      "rule": 4500,
      "Internet": 4501,
      "Romney": 4502,
      "false": 4503,
      "Virginia": 4504,
      "rum": 4505,
      "horse": 4506,
      "kne": 4507,
      "responded": 4508,
      "recovery": 4509,
      "iPhone": 4510,
      "BS": 4511,
      "ashes": 4512,
      "signing": 4513,
      "pray": 4514,
      "debut": 4515,
      "corre": 4516,
      "prime": 4517,
      "Nations": 4518,
      "accom": 4519,
      "owed": 4520,
      "eth": 4521,
      "nature": 4522,
      "Kevin": 4523,
      "sty": 4524,
      "score": 4525,
      "agon": 4526,
      "urning": 4527,
      "aught": 4528,
      "connection": 4529,
      "unique": 4530,
      "virus": 4531,
      "eman": 4532,
      "Ver": 4533,
      "Fl": 4534,
      "declined": 4535,
      "aband": 4536,
      "batter": 4537,
      "lawsuit": 4538,
      "isation": 4539,
      "production": 4540,
      "Jordan": 4541,
      "Mir": 4542,
      "Eric": 4543,
      "religious": 4544,
      "youth": 4545,
      "cuts": 4546,
      "rates": 4547,
      "prove": 4548,
      "Bol": 4549,
      "Committee": 4550,
      "ante": 4551,
      "surface": 4552,
      "rising": 4553,
      "option": 4554,
      "declared": 4555,
      "anced": 4556,
      "Es": 4557,
      "allowing": 4558,
      "filled": 4559,
      "lip": 4560,
      "beg": 4561,
      "trig": 4562,
      "Niger": 4563,
      "bles": 4564,
      "Democrats": 4565,
      "Ox": 4566,
      "agree": 4567,
      "surprise": 4568,
      "feature": 4569,
      "meth": 4570,
      "chain": 4571,
      "unit": 4572,
      "sudden": 4573,
      "rang": 4574,
      "analy": 4575,
      "Central": 4576,
      "2003": 4577,
      "escape": 4578,
      "cro": 4579,
      "YouTube": 4580,
      "Michel": 4581,
      "Ali": 4582,
      "isto": 4583,
      "acting": 4584,
      "ovic": 4585,
      "ching": 4586,
      "Earlier": 4587,
      "repeatedly": 4588,
      "ume": 4589,
      "obtain": 4590,
      "garden": 4591,
      "cool": 4592,
      "contest": 4593,
      "passenger": 4594,
      "require": 4595,
      "located": 4596,
      "Tory": 4597,
      "chemical": 4598,
      "skill": 4599,
      "photographs": 4600,
      "remove": 4601,
      "Out": 4602,
      "Fort": 4603,
      "iana": 4604,
      "citizens": 4605,
      "MPs": 4606,
      "content": 4607,
      "difference": 4608,
      "plom": 4609,
      "independent": 4610,
      "bright": 4611,
      "65": 4612,
      "Four": 4613,
      "lement": 4614,
      "agent": 4615,
      "Ill": 4616,
      "Sou": 4617,
      "royal": 4618,
      "ares": 4619,
      "College": 4620,
      "anny": 4621,
      "abs": 4622,
      "Win": 4623,
      "Play": 4624,
      "apart": 4625,
      "equip": 4626,
      "trade": 4627,
      "advice": 4628,
      "luxury": 4629,
      "ulting": 4630,
      "confidence": 4631,
      "wich": 4632,
      "ufact": 4633,
      "pull": 4634,
      "IC": 4635,
      "boost": 4636,
      "achieve": 4637,
      "stories": 4638,
      "Tha": 4639,
      "Ah": 4640,
      "soft": 4641,
      "defence": 4642,
      "beauty": 4643,
      "2015": 4644,
      "Human": 4645,
      "credit": 4646,
      "Ive": 4647,
      "relative": 4648,
      "incredible": 4649,
      "offers": 4650,
      "barr": 4651,
      "stern": 4652,
      "stuff": 4653,
      "stood": 4654,
      "definite": 4655,
      "Lau": 4656,
      "Maria": 4657,
      "Investig": 4658,
      "ABC": 4659,
      "hab": 4660,
      "IA": 4661,
      "register": 4662,
      "advant": 4663,
      "offering": 4664,
      "isa": 4665,
      "willing": 4666,
      "benefit": 4667,
      "cant": 4668,
      "Cambridge": 4669,
      "wish": 4670,
      "entered": 4671,
      "awa": 4672,
      "rub": 4673,
      "cry": 4674,
      "posing": 4675,
      "Adam": 4676,
      "encies": 4677,
      "CEO": 4678,
      "bringing": 4679,
      "dia": 4680,
      "settle": 4681,
      "Holland": 4682,
      "Cha": 4683,
      "Net": 4684,
      "iel": 4685,
      "Gal": 4686,
      "fears": 4687,
      "voted": 4688,
      "kil": 4689,
      "candidate": 4690,
      "600": 4691,
      "ano": 4692,
      "changing": 4693,
      "Jeff": 4694,
      "lucky": 4695,
      "auction": 4696,
      "kin": 4697,
      "struggling": 4698,
      "Dou": 4699,
      "electric": 4700,
      "army": 4701,
      "falling": 4702,
      "apers": 4703,
      "wake": 4704,
      "Southampton": 4705,
      "blast": 4706,
      "Jam": 4707,
      "Mun": 4708,
      "moments": 4709,
      "Attorney": 4710,
      "wart": 4711,
      "IN": 4712,
      "fol": 4713,
      "Reg": 4714,
      "Club": 4715,
      "equipment": 4716,
      "Palest": 4717,
      "writing": 4718,
      "poses": 4719,
      "devices": 4720,
      "Foreign": 4721,
      "sust": 4722,
      "aldo": 4723,
      "Before": 4724,
      "iest": 4725,
      "Young": 4726,
      "uge": 4727,
      "itation": 4728,
      "directly": 4729,
      "Instead": 4730,
      "py": 4731,
      "inquir": 4732,
      "gradu": 4733,
      "gri": 4734,
      "colleagues": 4735,
      "Agency": 4736,
      "itals": 4737,
      "secure": 4738,
      "measure": 4739,
      "deadly": 4740,
      "mingham": 4741,
      "ox": 4742,
      "Stu": 4743,
      "union": 4744,
      "stolen": 4745,
      "freedom": 4746,
      "Beach": 4747,
      "failure": 4748,
      "funeral": 4749,
      "heat": 4750,
      "Lin": 4751,
      "trouble": 4752,
      "resort": 4753,
      "Zeal": 4754,
      "Sav": 4755,
      "Ray": 4756,
      "Birmingham": 4757,
      "clash": 4758,
      "OR": 4759,
      "alled": 4760,
      "infl": 4761,
      "scale": 4762,
      "daughters": 4763,
      "founder": 4764,
      "carri": 4765,
      "dressed": 4766,
      "isher": 4767,
      "urged": 4768,
      "commercial": 4769,
      "targeted": 4770,
      "completed": 4771,
      "bulance": 4772,
      "favourite": 4773,
      "Er": 4774,
      "eg": 4775,
      "assistant": 4776,
      "Let": 4777,
      "emen": 4778,
      "0s": 4779,
      "Donald": 4780,
      "insurance": 4781,
      "threatening": 4782,
      "bum": 4783,
      "thew": 4784,
      "Ru": 4785,
      "ources": 4786,
      "ishment": 4787,
      "Medical": 4788,
      "Mourinho": 4789,
      "ole": 4790,
      "theast": 4791,
      "stal": 4792,
      "diet": 4793,
      "Sea": 4794,
      "manufact": 4795,
      "Stadium": 4796,
      "ification": 4797,
      "talent": 4798,
      "mic": 4799,
      "oma": 4800,
      "Prosecu": 4801,
      "Cal": 4802,
      "emotional": 4803,
      "corpor": 4804,
      "stock": 4805,
      "ensions": 4806,
      "except": 4807,
      "Walk": 4808,
      "faith": 4809,
      "sand": 4810,
      "headed": 4811,
      "tiny": 4812,
      "diplom": 4813,
      "confirm": 4814,
      "Kelly": 4815,
      "limited": 4816,
      "ride": 4817,
      "secretary": 4818,
      "Supreme": 4819,
      "Atlanta": 4820,
      "zone": 4821,
      "receiving": 4822,
      "turning": 4823,
      "volunte": 4824,
      "Professor": 4825,
      "Sing": 4826,
      "Squ": 4827,
      "rival": 4828,
      "Ariz": 4829,
      "Diego": 4830,
      "03": 4831,
      "tort": 4832,
      "heads": 4833,
      "Hart": 4834,
      "flights": 4835,
      "Fergus": 4836,
      "involving": 4837,
      "returning": 4838,
      "dinner": 4839,
      "machine": 4840,
      "pra": 4841,
      "Sorry": 4842,
      "Found": 4843,
      "ials": 4844,
      "sele": 4845,
      "audience": 4846,
      "vul": 4847,
      "Japanese": 4848,
      "wise": 4849,
      "sts": 4850,
      "nis": 4851,
      "crashed": 4852,
      "Long": 4853,
      "pit": 4854,
      "IP": 4855,
      "militants": 4856,
      "rescu": 4857,
      "nut": 4858,
      "Rooney": 4859,
      "unusual": 4860,
      "status": 4861,
      "river": 4862,
      "decis": 4863,
      "Tour": 4864,
      "ko": 4865,
      "illy": 4866,
      "beating": 4867,
      "proceed": 4868,
      "income": 4869,
      "Bow": 4870,
      "accounts": 4871,
      "NBC": 4872,
      "2001": 4873,
      "Argentina": 4874,
      "250": 4875,
      "section": 4876,
      "jet": 4877,
      "tum": 4878,
      "Hong": 4879,
      "outs": 4880,
      "cused": 4881,
      "beth": 4882,
      "angry": 4883,
      "adults": 4884,
      "Arizona": 4885,
      "elections": 4886,
      "Dire": 4887,
      "environment": 4888,
      "monitor": 4889,
      "houses": 4890,
      "rail": 4891,
      "iley": 4892,
      "additional": 4893,
      "dating": 4894,
      "suspects": 4895,
      "saving": 4896,
      "explos": 4897,
      "pression": 4898,
      "minim": 4899,
      "Miami": 4900,
      "Morgan": 4901,
      "friendly": 4902,
      "conscious": 4903,
      "Hay": 4904,
      "Zealand": 4905,
      "sending": 4906,
      "ulf": 4907,
      "retired": 4908,
      "Dor": 4909,
      "Jour": 4910,
      "Mu": 4911,
      "moon": 4912,
      "chess": 4913,
      "surge": 4914,
      "vals": 4915,
      "Alan": 4916,
      "Kenned": 4917,
      "supposed": 4918,
      "Family": 4919,
      "revol": 4920,
      "Ministry": 4921,
      "corner": 4922,
      "wounded": 4923,
      "nice": 4924,
      "roy": 4925,
      "leadership": 4926,
      "ifying": 4927,
      "lawyers": 4928,
      "Any": 4929,
      "mum": 4930,
      "fatal": 4931,
      "Color": 4932,
      "hasn": 4933,
      "brut": 4934,
      "elling": 4935,
      "buildings": 4936,
      "doors": 4937,
      "cha": 4938,
      "Children": 4939,
      "failing": 4940,
      "iano": 4941,
      "Once": 4942,
      "questioned": 4943,
      "Bre": 4944,
      "tradition": 4945,
      "affili": 4946,
      "uni": 4947,
      "800": 4948,
      "frequ": 4949,
      "eing": 4950,
      "guests": 4951,
      "knife": 4952,
      "Greg": 4953,
      "FL": 4954,
      "western": 4955,
      "tragedy": 4956,
      "Scottish": 4957,
      "oner": 4958,
      "retail": 4959,
      "tood": 4960,
      "reduce": 4961,
      "Lit": 4962,
      "understood": 4963,
      "Roberts": 4964,
      "coal": 4965,
      "Ronaldo": 4966,
      "Navy": 4967,
      "wore": 4968,
      "terrorism": 4969,
      "Costa": 4970,
      "cameras": 4971,
      "Kong": 4972,
      "aza": 4973,
      "Force": 4974,
      "uce": 4975,
      "idel": 4976,
      "Pan": 4977,
      "introduced": 4978,
      "Der": 4979,
      "hid": 4980,
      "historic": 4981,
      "acking": 4982,
      "inspe": 4983,
      "stable": 4984,
      "drawn": 4985,
      "tight": 4986,
      "unve": 4987,
      "roof": 4988,
      "species": 4989,
      "Ferguson": 4990,
      "oppon": 4991,
      "zy": 4992,
      "apy": 4993,
      "trick": 4994,
      "GP": 4995,
      "weapon": 4996,
      "listed": 4997,
      "comfortable": 4998,
      "Mem": 4999,
      "rom": 5000,
      "Yorkshire": 5001,
      "plot": 5002,
      "Who": 5003,
      "itchen": 5004,
      "Cath": 5005,
      "aces": 5006,
      "pieces": 5007,
      "criticism": 5008,
      "Queens": 5009,
      "stores": 5010,
      "acknow": 5011,
      "Belg": 5012,
      "allows": 5013,
      "tery": 5014,
      "limit": 5015,
      "string": 5016,
      "survived": 5017,
      "ais": 5018,
      "announcement": 5019,
      "mayor": 5020,
      "matic": 5021,
      "entertain": 5022,
      "Turkey": 5023,
      "reaction": 5024,
      "quarters": 5025,
      "ji": 5026,
      "ott": 5027,
      "generation": 5028,
      "OP": 5029,
      "Kennedy": 5030,
      "IV": 5031,
      "standards": 5032,
      "Cub": 5033,
      "effects": 5034,
      "consist": 5035,
      "Roy": 5036,
      "MA": 5037,
      "itude": 5038,
      "Burn": 5039,
      "split": 5040,
      "designer": 5041,
      "province": 5042,
      "teach": 5043,
      "Miller": 5044,
      "enjoyed": 5045,
      "gather": 5046,
      "myster": 5047,
      "Matthew": 5048,
      "Spr": 5049,
      "politics": 5050,
      "Lake": 5051,
      "complaint": 5052,
      "Everton": 5053,
      "swit": 5054,
      "killer": 5055,
      "iversary": 5056,
      "dance": 5057,
      "worried": 5058,
      "Sc": 5059,
      "condem": 5060,
      "frustr": 5061,
      "Pad": 5062,
      "neighborhood": 5063,
      "opinions": 5064,
      "decide": 5065,
      "nar": 5066,
      "hire": 5067,
      "agents": 5068,
      "quiet": 5069,
      "circumstances": 5070,
      "square": 5071,
      "soldier": 5072,
      "thank": 5073,
      "individuals": 5074,
      "temperatures": 5075,
      "Eliza": 5076,
      "crimin": 5077,
      "definitely": 5078,
      "Gary": 5079,
      "Ann": 5080,
      "ye": 5081,
      "protection": 5082,
      "anna": 5083,
      "systems": 5084,
      "hatt": 5085,
      "aggress": 5086,
      "management": 5087,
      "rence": 5088,
      "Prin": 5089,
      "Dutch": 5090,
      "rushed": 5091,
      "prem": 5092,
      "experienced": 5093,
      "ruption": 5094,
      "aled": 5095,
      "operating": 5096,
      "Work": 5097,
      "Gen": 5098,
      "cock": 5099,
      "epis": 5100,
      "Associated": 5101,
      "Portug": 5102,
      "heading": 5103,
      "Suarez": 5104,
      "Palestin": 5105,
      "likes": 5106,
      "Colorado": 5107,
      "grown": 5108,
      "mention": 5109,
      "Ford": 5110,
      "backed": 5111,
      "damaged": 5112,
      "vari": 5113,
      "achu": 5114,
      "relatives": 5115,
      "models": 5116,
      "bourne": 5117,
      "eastern": 5118,
      "Ster": 5119,
      "barrass": 5120,
      "celebrates": 5121,
      "originally": 5122,
      "Juli": 5123,
      "keen": 5124,
      "2002": 5125,
      "ongoing": 5126,
      "threats": 5127,
      "surrounding": 5128,
      "Roman": 5129,
      "passing": 5130,
      "nic": 5131,
      "email": 5132,
      "rant": 5133,
      "shape": 5134,
      "nations": 5135,
      "increasingly": 5136,
      "strikes": 5137,
      "Blo": 5138,
      "umn": 5139,
      "maker": 5140,
      "Oli": 5141,
      "greater": 5142,
      "syn": 5143,
      "promised": 5144,
      "Putin": 5145,
      "exclus": 5146,
      "Centre": 5147,
      "colour": 5148,
      "cluded": 5149,
      "Evans": 5150,
      "dozens": 5151,
      "grew": 5152,
      "involve": 5153,
      "providing": 5154,
      "Football": 5155,
      "background": 5156,
      "Sho": 5157,
      "sparked": 5158,
      "creating": 5159,
      "facility": 5160,
      "bars": 5161,
      "Abu": 5162,
      "ademy": 5163,
      "Saf": 5164,
      "Hod": 5165,
      "Davis": 5166,
      "omin": 5167,
      "yard": 5168,
      "Northern": 5169,
      "hill": 5170,
      "regularly": 5171,
      "anniversary": 5172,
      "potentially": 5173,
      "construction": 5174,
      "Lind": 5175,
      "produce": 5176,
      "Institute": 5177,
      "saved": 5178,
      "atever": 5179,
      "vessel": 5180,
      "Ok": 5181,
      "evol": 5182,
      "Bern": 5183,
      "upset": 5184,
      "plays": 5185,
      "recru": 5186,
      "busy": 5187,
      "guns": 5188,
      "vac": 5189,
      "Ros": 5190,
      "2000": 5191,
      "Milan": 5192,
      "master": 5193,
      "delight": 5194,
      "feels": 5195,
      "Men": 5196,
      "helicopter": 5197,
      "leaves": 5198,
      "solely": 5199,
      "inquest": 5200,
      "haven": 5201,
      "correct": 5202,
      "athe": 5203,
      "slight": 5204,
      "subur": 5205,
      "noticed": 5206,
      "legend": 5207,
      "Dan": 5208,
      "bags": 5209,
      "science": 5210,
      "adult": 5211,
      "advantage": 5212,
      "plastic": 5213,
      "Olympics": 5214,
      "inet": 5215,
      "suggests": 5216,
      "tail": 5217,
      "atest": 5218,
      "Ohio": 5219,
      "termine": 5220,
      "worry": 5221,
      "Zim": 5222,
      "proved": 5223,
      "plat": 5224,
      "maybe": 5225,
      "esc": 5226,
      "istol": 5227,
      "determine": 5228,
      "ifer": 5229,
      "democr": 5230,
      "uana": 5231,
      "constant": 5232,
      "pushed": 5233,
      "planet": 5234,
      "ables": 5235,
      "Feder": 5236,
      "ela": 5237,
      "Bus": 5238,
      "ologist": 5239,
      "icated": 5240,
      "parliament": 5241,
      "Hamilton": 5242,
      "golf": 5243,
      "destroyed": 5244,
      "DNA": 5245,
      "opted": 5246,
      "setts": 5247,
      "drove": 5248,
      "truth": 5249,
      "tempor": 5250,
      "Lar": 5251,
      "Lat": 5252,
      "panel": 5253,
      "intended": 5254,
      "stadium": 5255,
      "Swed": 5256,
      "orders": 5257,
      "nam": 5258,
      "Bridge": 5259,
      "journalist": 5260,
      "plus": 5261,
      "ardi": 5262,
      "brothers": 5263,
      "Hal": 5264,
      "stro": 5265,
      "Like": 5266,
      "findings": 5267,
      "si": 5268,
      "reading": 5269,
      "babies": 5270,
      "bare": 5271,
      "sexually": 5272,
      "chest": 5273,
      "Instag": 5274,
      "semi": 5275,
      "larger": 5276,
      "Massachu": 5277,
      "Stud": 5278,
      "exhib": 5279,
      "bery": 5280,
      "affair": 5281,
      "Jess": 5282,
      "illance": 5283,
      "Mont": 5284,
      "Massachusetts": 5285,
      "presents": 5286,
      "contacted": 5287,
      "weigh": 5288,
      "trail": 5289,
      "inches": 5290,
      "neys": 5291,
      "waters": 5292,
      "dramatic": 5293,
      "prop": 5294,
      "activities": 5295,
      "earned": 5296,
      "airline": 5297,
      "forms": 5298,
      "Instagram": 5299,
      "ww": 5300,
      "disaster": 5301,
      "cket": 5302,
      "ijuana": 5303,
      "cin": 5304,
      "Because": 5305,
      "meat": 5306,
      "Sheriff": 5307,
      "featured": 5308,
      "Duchess": 5309,
      "smoke": 5310,
      "viewers": 5311,
      "Bul": 5312,
      "hone": 5313,
      "strength": 5314,
      "bigger": 5315,
      "funding": 5316,
      "Coll": 5317,
      "edge": 5318,
      "itz": 5319,
      "pir": 5320,
      "Gard": 5321,
      "nell": 5322,
      "presence": 5323,
      "embr": 5324,
      "athlet": 5325,
      "jack": 5326,
      "Cole": 5327,
      "02": 5328,
      "embarrass": 5329,
      "hosp": 5330,
      "ticket": 5331,
      "Allen": 5332,
      "exercise": 5333,
      "primary": 5334,
      "ernandez": 5335,
      "Research": 5336,
      "perman": 5337,
      "graphy": 5338,
      "analys": 5339,
      "filmed": 5340,
      "employment": 5341,
      "Sain": 5342,
      "iar": 5343,
      "Only": 5344,
      "vulner": 5345,
      "Jay": 5346,
      "Mich": 5347,
      "weak": 5348,
      "grandmother": 5349,
      "Elizabeth": 5350,
      "Top": 5351,
      "fallen": 5352,
      "scheme": 5353,
      "strain": 5354,
      "deputy": 5355,
      "Manhatt": 5356,
      "mand": 5357,
      "drag": 5358,
      "Asia": 5359,
      "governor": 5360,
      "noted": 5361,
      "businesses": 5362,
      "loaded": 5363,
      "kiss": 5364,
      "attempts": 5365,
      "pal": 5366,
      "memory": 5367,
      "reflect": 5368,
      "debt": 5369,
      "Beij": 5370,
      "mine": 5371,
      "kitchen": 5372,
      "Defense": 5373,
      "housing": 5374,
      "Ian": 5375,
      "horrif": 5376,
      "adm": 5377,
      "pursu": 5378,
      "ER": 5379,
      "odd": 5380,
      "sett": 5381,
      "conducted": 5382,
      "Pict": 5383,
      "inspir": 5384,
      "extrem": 5385,
      "Care": 5386,
      "visiting": 5387,
      "honor": 5388,
      "distr": 5389,
      "lap": 5390,
      "ulate": 5391,
      "Beijing": 5392,
      "icken": 5393,
      "remote": 5394,
      "wer": 5395,
      "grav": 5396,
      "Week": 5397,
      "gate": 5398,
      "ode": 5399,
      "AC": 5400,
      "iation": 5401,
      "identity": 5402,
      "travelling": 5403,
      "legally": 5404,
      "ronic": 5405,
      "Anderson": 5406,
      "Iraqi": 5407,
      "climate": 5408,
      "ulated": 5409,
      "helps": 5410,
      "interested": 5411,
      "Manhattan": 5412,
      "oted": 5413,
      "tool": 5414,
      "tribute": 5415,
      "closer": 5416,
      "driven": 5417,
      "Show": 5418,
      "Journal": 5419,
      "reput": 5420,
      "Wayne": 5421,
      "Fab": 5422,
      "Villa": 5423,
      "Clark": 5424,
      "trained": 5425,
      "spirit": 5426,
      "occup": 5427,
      "locked": 5428,
      "enders": 5429,
      "landed": 5430,
      "scow": 5431,
      "professor": 5432,
      "Milib": 5433,
      "employee": 5434,
      "causes": 5435,
      "assess": 5436,
      "aced": 5437,
      "2016": 5438,
      "Snow": 5439,
      "skills": 5440,
      "belief": 5441,
      "teachers": 5442,
      "tie": 5443,
      "Francisco": 5444,
      "influence": 5445,
      "thus": 5446,
      "ella": 5447,
      "blow": 5448,
      "los": 5449,
      "tragic": 5450,
      "capture": 5451,
      "tag": 5452,
      "erous": 5453,
      "conspir": 5454,
      "landing": 5455,
      "asket": 5456,
      "Messi": 5457,
      "tot": 5458,
      "Leic": 5459,
      "Saudi": 5460,
      "recovered": 5461,
      "obs": 5462,
      "symptoms": 5463,
      "sought": 5464,
      "couples": 5465,
      "Town": 5466,
      "identify": 5467,
      "commentary": 5468,
      "passion": 5469,
      "easily": 5470,
      "cycl": 5471,
      "Kir": 5472,
      "tourists": 5473,
      "alling": 5474,
      "resist": 5475,
      "teenage": 5476,
      "Hun": 5477,
      "struggle": 5478,
      "deploy": 5479,
      "Trust": 5480,
      "Hotel": 5481,
      "Bag": 5482,
      "elled": 5483,
      "performed": 5484,
      "gathered": 5485,
      "function": 5486,
      "task": 5487,
      "delivered": 5488,
      "Cy": 5489,
      "consult": 5490,
      "mistake": 5491,
      "witnesses": 5492,
      "unlikely": 5493,
      "joint": 5494,
      "stunning": 5495,
      "thro": 5496,
      "tells": 5497,
      "policies": 5498,
      "champions": 5499,
      "wine": 5500,
      "plants": 5501,
      "Rac": 5502,
      "eur": 5503,
      "marks": 5504,
      "Moscow": 5505,
      "boast": 5506,
      "Cross": 5507,
      "FIFA": 5508,
      "accepted": 5509,
      "Las": 5510,
      "Championship": 5511,
      "dollars": 5512,
      "rejected": 5513,
      "01": 5514,
      "welcome": 5515,
      "Hou": 5516,
      "films": 5517,
      "appre": 5518,
      "command": 5519,
      "Life": 5520,
      "spring": 5521,
      "offee": 5522,
      "taxpay": 5523,
      "mod": 5524,
      "standard": 5525,
      "argued": 5526,
      "prosecutor": 5527,
      "borne": 5528,
      "Jes": 5529,
      "Cra": 5530,
      "gro": 5531,
      "Leon": 5532,
      "bike": 5533,
      "Michelle": 5534,
      "painting": 5535,
      "happens": 5536,
      "farm": 5537,
      "ambulance": 5538,
      "olds": 5539,
      "fought": 5540,
      "proposed": 5541,
      "Mexican": 5542,
      "Channel": 5543,
      "Dem": 5544,
      "Rock": 5545,
      "Parliament": 5546,
      "cig": 5547,
      "umped": 5548,
      "Six": 5549,
      "possibility": 5550,
      "ingly": 5551,
      "Lady": 5552,
      "thrown": 5553,
      "Brian": 5554,
      "relax": 5555,
      "shark": 5556,
      "compens": 5557,
      "veteran": 5558,
      "approved": 5559,
      "murdered": 5560,
      "Henry": 5561,
      "sees": 5562,
      "celebrity": 5563,
      "complaints": 5564,
      "surprised": 5565,
      "overall": 5566,
      "ache": 5567,
      "Il": 5568,
      "uit": 5569,
      "expand": 5570,
      "focused": 5571,
      "developing": 5572,
      "incidents": 5573,
      "inch": 5574,
      "Buck": 5575,
      "rose": 5576,
      "immediate": 5577,
      "struggled": 5578,
      "sorry": 5579,
      "cards": 5580,
      "equal": 5581,
      "distri": 5582,
      "ially": 5583,
      "learning": 5584,
      "route": 5585,
      "valu": 5586,
      "accepting": 5587,
      "metal": 5588,
      "medal": 5589,
      "See": 5590,
      "mosp": 5591,
      "mothers": 5592,
      "ova": 5593,
      "knowledge": 5594,
      "wave": 5595,
      "journalists": 5596,
      "promise": 5597,
      "widely": 5598,
      "Phill": 5599,
      "iti": 5600,
      "Naz": 5601,
      "notice": 5602,
      "iner": 5603,
      "roads": 5604,
      "testing": 5605,
      "trau": 5606,
      "legislation": 5607,
      "Women": 5608,
      "possession": 5609,
      "ET": 5610,
      "shar": 5611,
      "sym": 5612,
      "trees": 5613,
      "cia": 5614,
      "Cook": 5615,
      "profit": 5616,
      "tomor": 5617,
      "occasion": 5618,
      "tomorrow": 5619,
      "Jane": 5620,
      "riot": 5621,
      "dio": 5622,
      "arre": 5623,
      "imm": 5624,
      "evac": 5625,
      "Foundation": 5626,
      "rivals": 5627,
      "stuck": 5628,
      "greatest": 5629,
      "scenes": 5630,
      "tears": 5631,
      "Bon": 5632,
      "pill": 5633,
      "LL": 5634,
      "Robinson": 5635,
      "NFL": 5636,
      "Mand": 5637,
      "cation": 5638,
      "arrang": 5639,
      "trigger": 5640,
      "Ow": 5641,
      "vania": 5642,
      "routine": 5643,
      "conversation": 5644,
      "biz": 5645,
      "marijuana": 5646,
      "Nat": 5647,
      "gall": 5648,
      "chances": 5649,
      "gal": 5650,
      "impressive": 5651,
      "exchange": 5652,
      "knee": 5653,
      "iat": 5654,
      "Mayor": 5655,
      "bun": 5656,
      "publicly": 5657,
      "Ly": 5658,
      "prospect": 5659,
      "tha": 5660,
      "pension": 5661,
      "Tele": 5662,
      "icts": 5663,
      "Morris": 5664,
      "parking": 5665,
      "options": 5666,
      "Among": 5667,
      "Laur": 5668,
      "organiz": 5669,
      "Canad": 5670,
      "tun": 5671,
      "syl": 5672,
      "Get": 5673,
      "elle": 5674,
      "offences": 5675,
      "communities": 5676,
      "letters": 5677,
      "Cru": 5678,
      "considering": 5679,
      "shout": 5680,
      "ounced": 5681,
      "Lanc": 5682,
      "inquiry": 5683,
      "eline": 5684,
      "essential": 5685,
      "ining": 5686,
      "haz": 5687,
      "Yet": 5688,
      "decisions": 5689,
      "nie": 5690,
      "Josh": 5691,
      "aughter": 5692,
      "tu": 5693,
      "shocking": 5694,
      "Bet": 5695,
      "olic": 5696,
      "Soci": 5697,
      "presented": 5698,
      "stance": 5699,
      "ita": 5700,
      "Jason": 5701,
      "yellow": 5702,
      "Pac": 5703,
      "Sher": 5704,
      "enty": 5705,
      "effective": 5706,
      "Airl": 5707,
      "iter": 5708,
      "Pennsyl": 5709,
      "cipl": 5710,
      "antly": 5711,
      "mostly": 5712,
      "remaining": 5713,
      "illing": 5714,
      "Princess": 5715,
      "clothing": 5716,
      "77": 5717,
      "length": 5718,
      "satis": 5719,
      "icket": 5720,
      "refuge": 5721,
      "retire": 5722,
      "Oscar": 5723,
      "Airlines": 5724,
      "About": 5725,
      "Luis": 5726,
      "stabbed": 5727,
      "Dam": 5728,
      "none": 5729,
      "Watson": 5730,
      "surveillance": 5731,
      "seats": 5732,
      "prefer": 5733,
      "coverage": 5734,
      "Ross": 5735,
      "banks": 5736,
      "nick": 5737,
      "anony": 5738,
      "numerous": 5739,
      "elected": 5740,
      "complained": 5741,
      "hate": 5742,
      "highlight": 5743,
      "ipped": 5744,
      "fighter": 5745,
      "Bayern": 5746,
      "bassy": 5747,
      "Public": 5748,
      "igno": 5749,
      "apt": 5750,
      "Pennsylvania": 5751,
      "choose": 5752,
      "Space": 5753,
      "prosecution": 5754,
      "Gun": 5755,
      "buried": 5756,
      "rating": 5757,
      "happening": 5758,
      "USA": 5759,
      "Lev": 5760,
      "ivity": 5761,
      "pointing": 5762,
      "grave": 5763,
      "blame": 5764,
      "Max": 5765,
      "UN": 5766,
      "Ap": 5767,
      "rev": 5768,
      "verse": 5769,
      "consu": 5770,
      "pupils": 5771,
      "deeply": 5772,
      "possibly": 5773,
      "worldwide": 5774,
      "goalkeeper": 5775,
      "bish": 5776,
      "investment": 5777,
      "lift": 5778,
      "intent": 5779,
      "Swan": 5780,
      "blamed": 5781,
      "marked": 5782,
      "Hamp": 5783,
      "lan": 5784,
      "behavior": 5785,
      "enses": 5786,
      "elderly": 5787,
      "Glo": 5788,
      "gi": 5789,
      "fficient": 5790,
      "investigate": 5791,
      "assu": 5792,
      "raising": 5793,
      "Hom": 5794,
      "700": 5795,
      "Nic": 5796,
      "personnel": 5797,
      "properly": 5798,
      "Time": 5799,
      "distance": 5800,
      "Iranian": 5801,
      "jok": 5802,
      "iance": 5803,
      "Square": 5804,
      "coc": 5805,
      "Sports": 5806,
      "ansas": 5807,
      "Abd": 5808,
      "irts": 5809,
      "Charlie": 5810,
      "Rights": 5811,
      "buying": 5812,
      "album": 5813,
      "scri": 5814,
      "Joseph": 5815,
      "shell": 5816,
      "66": 5817,
      "challenges": 5818,
      "smaller": 5819,
      "staying": 5820,
      "funds": 5821,
      "predict": 5822,
      "excited": 5823,
      "tegr": 5824,
      "burgh": 5825,
      "grounds": 5826,
      "sque": 5827,
      "controlled": 5828,
      "Art": 5829,
      "Report": 5830,
      "fron": 5831,
      "opinion": 5832,
      "Miliband": 5833,
      "Kur": 5834,
      "hoped": 5835,
      "Melbourne": 5836,
      "lunch": 5837,
      "istics": 5838,
      "Alexander": 5839,
      "Cab": 5840,
      "Cooper": 5841,
      "writer": 5842,
      "quake": 5843,
      "tennis": 5844,
      "Patrick": 5845,
      "eland": 5846,
      "ua": 5847,
      "norm": 5848,
      "combat": 5849,
      "estyle": 5850,
      "DC": 5851,
      "Wenger": 5852,
      "Stand": 5853,
      "dust": 5854,
      "updated": 5855,
      "Ashley": 5856,
      "torn": 5857,
      "humans": 5858,
      "icy": 5859,
      "Christop": 5860,
      "ouri": 5861,
      "complic": 5862,
      "vulnerable": 5863,
      "Federal": 5864,
      "acknowled": 5865,
      "neur": 5866,
      "dismissed": 5867,
      "swimming": 5868,
      "owell": 5869,
      "desperate": 5870,
      "Valley": 5871,
      "cture": 5872,
      "markets": 5873,
      "Emma": 5874,
      "drew": 5875,
      "ju": 5876,
      "OW": 5877,
      "cells": 5878,
      "Assad": 5879,
      "Pen": 5880,
      "client": 5881,
      "yo": 5882,
      "verdict": 5883,
      "Ut": 5884,
      "Graham": 5885,
      "map": 5886,
      "tend": 5887,
      "Love": 5888,
      "seized": 5889,
      "ashing": 5890,
      "Anna": 5891,
      "divorce": 5892,
      "nurse": 5893,
      "Little": 5894,
      "lab": 5895,
      "vey": 5896,
      "bbed": 5897,
      "iga": 5898,
      "method": 5899,
      "illed": 5900,
      "Rick": 5901,
      "write": 5902,
      "appearances": 5903,
      "conservative": 5904,
      "Ell": 5905,
      "offensive": 5906,
      "controversy": 5907,
      "distribut": 5908,
      "largely": 5909,
      "brutal": 5910,
      "heavily": 5911,
      "planes": 5912,
      "Philip": 5913,
      "tested": 5914,
      "Colomb": 5915,
      "icking": 5916,
      "abandoned": 5917,
      "Jen": 5918,
      "joining": 5919,
      "politicians": 5920,
      "DA": 5921,
      "Lyn": 5922,
      "Rel": 5923,
      "aug": 5924,
      "silver": 5925,
      "Hug": 5926,
      "Nev": 5927,
      "HE": 5928,
      "bottle": 5929,
      "gender": 5930,
      "basis": 5931,
      "Are": 5932,
      "lady": 5933,
      "calm": 5934,
      "abled": 5935,
      "consequ": 5936,
      "Terry": 5937,
      "Jonathan": 5938,
      "discovery": 5939,
      "disappeared": 5940,
      "liter": 5941,
      "Vegas": 5942,
      "stepped": 5943,
      "critics": 5944,
      "Bud": 5945,
      "museum": 5946,
      "resources": 5947,
      "Bas": 5948,
      "Ball": 5949,
      "prec": 5950,
      "maxim": 5951,
      "replaced": 5952,
      "sharing": 5953,
      "Stan": 5954,
      "Irish": 5955,
      "restrict": 5956,
      "discipl": 5957,
      "Rodgers": 5958,
      "Jr": 5959,
      "shoes": 5960,
      "Sterling": 5961,
      "privacy": 5962,
      "collapsed": 5963,
      "agencies": 5964,
      "coffee": 5965,
      "mel": 5966,
      "ja": 5967,
      "cutting": 5968,
      "Cro": 5969,
      "outrage": 5970,
      "ogue": 5971,
      "rocket": 5972,
      "stayed": 5973,
      "dozen": 5974,
      "SC": 5975,
      "uez": 5976,
      "asy": 5977,
      "granted": 5978,
      "atmosp": 5979,
      "hitting": 5980,
      "rebels": 5981,
      "code": 5982,
      "Houston": 5983,
      "iring": 5984,
      "worn": 5985,
      "explosion": 5986,
      "acle": 5987,
      "Duke": 5988,
      "Ple": 5989,
      "istrates": 5990,
      "Each": 5991,
      "ulous": 5992,
      "remarks": 5993,
      "Libya": 5994,
      "bassador": 5995,
      "Craig": 5996,
      "Team": 5997,
      "Turk": 5998,
      "CCTV": 5999,
      "Santa": 6000,
      "Mars": 6001,
      "awarded": 6002,
      "civilians": 6003,
      "inct": 6004,
      "etic": 6005,
      "allas": 6006,
      "Anton": 6007,
      "obviously": 6008,
      "whel": 6009,
      "moves": 6010,
      "activists": 6011,
      "candidates": 6012,
      "Rus": 6013,
      "tall": 6014,
      "hospitals": 6015,
      "slaughter": 6016,
      "arrival": 6017,
      "Lead": 6018,
      "gym": 6019,
      "connected": 6020,
      "established": 6021,
      "Officers": 6022,
      "Hear": 6023,
      "customer": 6024,
      "Id": 6025,
      "Khan": 6026,
      "disorder": 6027,
      "Comp": 6028,
      "Detect": 6029,
      "Jennifer": 6030,
      "mitted": 6031,
      "Canadian": 6032,
      "exposed": 6033,
      "pleas": 6034,
      "graphic": 6035,
      "Back": 6036,
      "Yes": 6037,
      "prompted": 6038,
      "plor": 6039,
      "virt": 6040,
      "Organ": 6041,
      "terrorists": 6042,
      "pes": 6043,
      "supply": 6044,
      "fortunately": 6045,
      "guards": 6046,
      "citizen": 6047,
      "supported": 6048,
      "advoc": 6049,
      "math": 6050,
      "iers": 6051,
      "nose": 6052,
      "authority": 6053,
      "ugg": 6054,
      "newly": 6055,
      "Gov": 6056,
      "tat": 6057,
      "Christopher": 6058,
      "jew": 6059,
      "iew": 6060,
      "Hull": 6061,
      "detail": 6062,
      "iPad": 6063,
      "Leicester": 6064,
      "Malays": 6065,
      "associated": 6066,
      "Oxford": 6067,
      "integr": 6068,
      "ads": 6069,
      "infection": 6070,
      "habit": 6071,
      "tes": 6072,
      "ategy": 6073,
      "continuing": 6074,
      "bond": 6075,
      "GOP": 6076,
      "Michigan": 6077,
      "isol": 6078,
      "tank": 6079,
      "Nas": 6080,
      "85": 6081,
      "cigaret": 6082,
      "tied": 6083,
      "wid": 6084,
      "67": 6085,
      "Mah": 6086,
      "dones": 6087,
      "Sud": 6088,
      "relations": 6089,
      "Pakist": 6090,
      "dry": 6091,
      "appoint": 6092,
      "Whit": 6093,
      "Ri": 6094,
      "conviction": 6095,
      "balance": 6096,
      "escaped": 6097,
      "recording": 6098,
      "Bang": 6099,
      "Land": 6100,
      "ette": 6101,
      "symbol": 6102,
      "gotten": 6103,
      "bills": 6104,
      "Following": 6105,
      "lah": 6106,
      "Blue": 6107,
      "sted": 6108,
      "micro": 6109,
      "whatever": 6110,
      "courts": 6111,
      "tickets": 6112,
      "diff": 6113,
      "ored": 6114,
      "owns": 6115,
      "plea": 6116,
      "prisoners": 6117,
      "hidden": 6118,
      "fake": 6119,
      "Indones": 6120,
      "chose": 6121,
      "jumped": 6122,
      "criticised": 6123,
      "Pakistani": 6124,
      "waste": 6125,
      "Sunder": 6126,
      "dates": 6127,
      "portion": 6128,
      "reputation": 6129,
      "hunt": 6130,
      "outbreak": 6131,
      "devastated": 6132,
      "arts": 6133,
      "negative": 6134,
      "affiliate": 6135,
      "tox": 6136,
      "Essex": 6137,
      "PS": 6138,
      "tact": 6139,
      "intim": 6140,
      "unknown": 6141,
      "stomach": 6142,
      "Rose": 6143,
      "motiv": 6144,
      "targets": 6145,
      "ira": 6146,
      "eree": 6147,
      "cocaine": 6148,
      "fro": 6149,
      "truly": 6150,
      "erup": 6151,
      "actors": 6152,
      "bone": 6153,
      "starts": 6154,
      "Best": 6155,
      "plenty": 6156,
      "guys": 6157,
      "waves": 6158,
      "ancell": 6159,
      "bust": 6160,
      "ureau": 6161,
      "Crime": 6162,
      "fined": 6163,
      "followers": 6164,
      "tear": 6165,
      "studies": 6166,
      "winds": 6167,
      "stream": 6168,
      "Lad": 6169,
      "aimed": 6170,
      "approached": 6171,
      "aks": 6172,
      "Conne": 6173,
      "arrive": 6174,
      "Polit": 6175,
      "flew": 6176,
      "toile": 6177,
      "liber": 6178,
      "iconic": 6179,
      "uated": 6180,
      "throw": 6181,
      "cott": 6182,
      "Second": 6183,
      "Radio": 6184,
      "bie": 6185,
      "ias": 6186,
      "acre": 6187,
      "grade": 6188,
      "rial": 6189,
      "thoughts": 6190,
      "reduced": 6191,
      "Neil": 6192,
      "unveiled": 6193,
      "replace": 6194,
      "62": 6195,
      "aco": 6196,
      "Gulf": 6197,
      "birds": 6198,
      "distur": 6199,
      "Hur": 6200,
      "Andre": 6201,
      "Museum": 6202,
      "founded": 6203,
      "Rio": 6204,
      "Fal": 6205,
      "jur": 6206,
      "referred": 6207,
      "tware": 6208,
      "mut": 6209,
      "Officials": 6210,
      "tt": 6211,
      "adel": 6212,
      "Moore": 6213,
      "thats": 6214,
      "aska": 6215,
      "lots": 6216,
      "direction": 6217,
      "Corn": 6218,
      "quit": 6219,
      "encounter": 6220,
      "68": 6221,
      "org": 6222,
      "Enter": 6223,
      "!\"": 6224,
      "episode": 6225,
      "Wim": 6226,
      "amber": 6227,
      "1970": 6228,
      "closely": 6229,
      "Muslims": 6230,
      "feared": 6231,
      "acceptable": 6232,
      "harass": 6233,
      "wonderful": 6234,
      "vation": 6235,
      "annah": 6236,
      "Whe": 6237,
      "honest": 6238,
      "Rodrig": 6239,
      "anx": 6240,
      "concluded": 6241,
      "horrific": 6242,
      "Call": 6243,
      "Mas": 6244,
      "initi": 6245,
      "adds": 6246,
      "parent": 6247,
      "Pope": 6248,
      "alle": 6249,
      "****": 6250,
      "RO": 6251,
      "AS": 6252,
      "Kerry": 6253,
      "revolution": 6254,
      "Sunderland": 6255,
      "Edu": 6256,
      "RS": 6257,
      "azz": 6258,
      "Brazilian": 6259,
      "unclear": 6260,
      "Fred": 6261,
      "threw": 6262,
      "digital": 6263,
      "amin": 6264,
      "extraordinary": 6265,
      "stein": 6266,
      "suspicion": 6267,
      "Ele": 6268,
      "joy": 6269,
      "survive": 6270,
      "drunk": 6271,
      "understanding": 6272,
      "aired": 6273,
      "abroad": 6274,
      "empty": 6275,
      "deter": 6276,
      "enjoying": 6277,
      "lifted": 6278,
      "lav": 6279,
      "gap": 6280,
      "eding": 6281,
      "Tenn": 6282,
      "strategy": 6283,
      "replac": 6284,
      "tackle": 6285,
      "surviv": 6286,
      "64": 6287,
      "unless": 6288,
      "brill": 6289,
      "Gordon": 6290,
      "height": 6291,
      "otic": 6292,
      "zen": 6293,
      "borough": 6294,
      "Thomp": 6295,
      "finger": 6296,
      "Trafford": 6297,
      "IT": 6298,
      "shed": 6299,
      "bird": 6300,
      "employed": 6301,
      "aded": 6302,
      "permission": 6303,
      "notes": 6304,
      "yourself": 6305,
      "posting": 6306,
      "meal": 6307,
      "Yemen": 6308,
      "consumers": 6309,
      "terrible": 6310,
      "bench": 6311,
      "naked": 6312,
      "FC": 6313,
      "deliber": 6314,
      "surprising": 6315,
      "achiev": 6316,
      "Catholic": 6317,
      "Bell": 6318,
      "Cop": 6319,
      "Friend": 6320,
      "nights": 6321,
      "detained": 6322,
      "searching": 6323,
      "print": 6324,
      "emic": 6325,
      "overwhel": 6326,
      "sharp": 6327,
      "ministers": 6328,
      "barri": 6329,
      "apol": 6330,
      "Scient": 6331,
      "Carl": 6332,
      "smoking": 6333,
      "trend": 6334,
      "realised": 6335,
      "wash": 6336,
      "follows": 6337,
      "amb": 6338,
      "atherine": 6339,
      "Jessica": 6340,
      "prescri": 6341,
      "Swansea": 6342,
      "vacc": 6343,
      "ishes": 6344,
      "laid": 6345,
      "ipal": 6346,
      "innocent": 6347,
      "familiar": 6348,
      "fitness": 6349,
      "robot": 6350,
      "anne": 6351,
      "horri": 6352,
      "tea": 6353,
      "burgl": 6354,
      "Sever": 6355,
      "princ": 6356,
      "preparing": 6357,
      "editor": 6358,
      "umph": 6359,
      "Test": 6360,
      "Atlantic": 6361,
      "Laura": 6362,
      "shops": 6363,
      "cook": 6364,
      "easier": 6365,
      "novel": 6366,
      "attacking": 6367,
      "patter": 6368,
      "ila": 6369,
      "impossible": 6370,
      "Campbell": 6371,
      "Edward": 6372,
      "pregnancy": 6373,
      "abort": 6374,
      "drama": 6375,
      "memorial": 6376,
      "knocked": 6377,
      "corruption": 6378,
      "Dub": 6379,
      "theft": 6380,
      "basket": 6381,
      "dish": 6382,
      "internal": 6383,
      "compensation": 6384,
      "ancient": 6385,
      "judges": 6386,
      "everybody": 6387,
      "satell": 6388,
      "concent": 6389,
      "tons": 6390,
      "Also": 6391,
      "coalition": 6392,
      "statements": 6393,
      "thinks": 6394,
      "Administr": 6395,
      "badly": 6396,
      "obtained": 6397,
      "express": 6398,
      "blind": 6399,
      "Sum": 6400,
      "Walker": 6401,
      "Director": 6402,
      "infr": 6403,
      "earning": 6404,
      "normally": 6405,
      "Stone": 6406,
      "azy": 6407,
      "software": 6408,
      "Thompson": 6409,
      "pread": 6410,
      "insists": 6411,
      "investigated": 6412,
      "Jamie": 6413,
      "metres": 6414,
      "burst": 6415,
      "classic": 6416,
      "Still": 6417,
      "Water": 6418,
      "Leeds": 6419,
      "unities": 6420,
      "connect": 6421,
      "sic": 6422,
      "supporting": 6423,
      "accur": 6424,
      "turns": 6425,
      "ware": 6426,
      "aval": 6427,
      "payments": 6428,
      "encourage": 6429,
      "Pacific": 6430,
      "Hernandez": 6431,
      "pound": 6432,
      "cleared": 6433,
      "rescued": 6434,
      "sis": 6435,
      "phe": 6436,
      "stated": 6437,
      "firms": 6438,
      "prepare": 6439,
      "acity": 6440,
      "dying": 6441,
      "PM": 6442,
      "vital": 6443,
      "atmosphere": 6444,
      "pink": 6445,
      "solution": 6446,
      "capable": 6447,
      "Girl": 6448,
      "racing": 6449,
      "shad": 6450,
      "smile": 6451,
      "doesnt": 6452,
      "visible": 6453,
      "gust": 6454,
      "Roll": 6455,
      "suddenly": 6456,
      "CBS": 6457,
      "Vill": 6458,
      "begins": 6459,
      "vin": 6460,
      "ancellor": 6461,
      "congress": 6462,
      "Oper": 6463,
      "raped": 6464,
      "prob": 6465,
      "Nad": 6466,
      "pub": 6467,
      "Danny": 6468,
      "rapid": 6469,
      "Dallas": 6470,
      "Gaza": 6471,
      "pover": 6472,
      "fel": 6473,
      "core": 6474,
      "chan": 6475,
      "trapped": 6476,
      "elson": 6477,
      "Simp": 6478,
      "Tra": 6479,
      "Asian": 6480,
      "relief": 6481,
      "formal": 6482,
      "labor": 6483,
      "talked": 6484,
      "iden": 6485,
      "proposal": 6486,
      "excess": 6487,
      "clip": 6488,
      "olas": 6489,
      "raid": 6490,
      "astron": 6491,
      "arriving": 6492,
      "forget": 6493,
      "engaged": 6494,
      "Amaz": 6495,
      "Nigeria": 6496,
      "slightly": 6497,
      "ental": 6498,
      "Hughes": 6499,
      "inations": 6500,
      "procedure": 6501,
      "categ": 6502,
      "web": 6503,
      "awn": 6504,
      "argument": 6505,
      "welfare": 6506,
      "mann": 6507,
      "fantastic": 6508,
      "grat": 6509,
      "solid": 6510,
      "lifestyle": 6511,
      "maximum": 6512,
      "fre": 6513,
      "spell": 6514,
      "surrounded": 6515,
      "fing": 6516,
      "provides": 6517,
      "Ferr": 6518,
      "kicked": 6519,
      "Wimbled": 6520,
      "wasnt": 6521,
      "jun": 6522,
      "reveals": 6523,
      "shoulder": 6524,
      "1999": 6525,
      "attempting": 6526,
      "Dur": 6527,
      "subsequ": 6528,
      "Palestinian": 6529,
      "presenter": 6530,
      "Dave": 6531,
      "agan": 6532,
      "risks": 6533,
      "Turn": 6534,
      "sch": 6535,
      "mour": 6536,
      "magn": 6537,
      "Metro": 6538,
      "til": 6539,
      "Hampshire": 6540,
      "defendant": 6541,
      "Pop": 6542,
      "err": 6543,
      "usion": 6544,
      "somebody": 6545,
      "totally": 6546,
      "($": 6547,
      "forecast": 6548,
      "invited": 6549,
      "Transport": 6550,
      "grass": 6551,
      "vies": 6552,
      "fees": 6553,
      "finals": 6554,
      "basic": 6555,
      "Oklah": 6556,
      "reaching": 6557,
      "Nich": 6558,
      "informed": 6559,
      "conspiracy": 6560,
      "petition": 6561,
      "favorite": 6562,
      "Wimbledon": 6563,
      "hide": 6564,
      "scar": 6565,
      "performing": 6566,
      "Fil": 6567,
      "behalf": 6568,
      "sixth": 6569,
      "Sel": 6570,
      "revel": 6571,
      "interests": 6572,
      "Hard": 6573,
      "63": 6574,
      "gam": 6575,
      "Prosecutors": 6576,
      "Photo": 6577,
      "cycle": 6578,
      "ardo": 6579,
      "Britains": 6580,
      "dispute": 6581,
      "yards": 6582,
      "defending": 6583,
      "mun": 6584,
      "scan": 6585,
      "itness": 6586,
      "cles": 6587,
      "officially": 6588,
      "teeth": 6589,
      "Tou": 6590,
      "racist": 6591,
      "packed": 6592,
      "Social": 6593,
      "ipping": 6594,
      "Turkish": 6595,
      "asters": 6596,
      "pushing": 6597,
      "scores": 6598,
      "Sean": 6599,
      "ques": 6600,
      "preced": 6601,
      "celebrities": 6602,
      "programs": 6603,
      "luck": 6604,
      "resto": 6605,
      "leads": 6606,
      "narrow": 6607,
      "minimum": 6608,
      "ancer": 6609,
      "documentary": 6610,
      "Wind": 6611,
      "Jewish": 6612,
      "Food": 6613,
      "Hope": 6614,
      "knowing": 6615,
      "prize": 6616,
      "reporting": 6617,
      "appreci": 6618,
      "Euro": 6619,
      "aboard": 6620,
      "gift": 6621,
      "sli": 6622,
      "aying": 6623,
      "proof": 6624,
      "inez": 6625,
      "Cas": 6626,
      "Jimmy": 6627,
      "vised": 6628,
      "Tech": 6629,
      "pig": 6630,
      "NAT": 6631,
      "festival": 6632,
      "successfully": 6633,
      "bizarre": 6634,
      "breach": 6635,
      "Cat": 6636,
      "CIA": 6637,
      "notori": 6638,
      "drinks": 6639,
      "Academy": 6640,
      "MS": 6641,
      "Christie": 6642,
      "Robin": 6643,
      "intention": 6644,
      "decor": 6645,
      "69": 6646,
      "sar": 6647,
      "Oklahoma": 6648,
      "immigrants": 6649,
      "bull": 6650,
      "ae": 6651,
      "permanent": 6652,
      "Society": 6653,
      "Hodg": 6654,
      "Fair": 6655,
      "Swit": 6656,
      "characters": 6657,
      "Yesterday": 6658,
      "dealing": 6659,
      "umber": 6660,
      "iser": 6661,
      "Rodriguez": 6662,
      "Celt": 6663,
      "cart": 6664,
      "compete": 6665,
      "Justin": 6666,
      "marry": 6667,
      "aser": 6668,
      "fruit": 6669,
      "Gill": 6670,
      "dubbed": 6671,
      "bio": 6672,
      "izes": 6673,
      "Head": 6674,
      "campus": 6675,
      "lung": 6676,
      "Missouri": 6677,
      "reporter": 6678,
      "idespread": 6679,
      "Mod": 6680,
      "colate": 6681,
      "assistance": 6682,
      "athon": 6683,
      "chosen": 6684,
      "Qat": 6685,
      "Crist": 6686,
      "Cardiff": 6687,
      "Munich": 6688,
      "bombing": 6689,
      "Station": 6690,
      "Amazon": 6691,
      "Ocean": 6692,
      "ented": 6693,
      "NY": 6694,
      "72": 6695,
      "gio": 6696,
      "poison": 6697,
      "Wild": 6698,
      "Marine": 6699,
      "powers": 6700,
      "Davies": 6701,
      "NASA": 6702,
      "Wright": 6703,
      "entirely": 6704,
      "orous": 6705,
      "factory": 6706,
      "Lt": 6707,
      "Arch": 6708,
      "Mohammed": 6709,
      "utter": 6710,
      "Gerr": 6711,
      "devastating": 6712,
      "teenagers": 6713,
      "OK": 6714,
      "km": 6715,
      "imagine": 6716,
      "earn": 6717,
      "ause": 6718,
      "phia": 6719,
      "Gi": 6720,
      "ocean": 6721,
      "communications": 6722,
      "sleeping": 6723,
      "zo": 6724,
      "igned": 6725,
      "alternative": 6726,
      "Boy": 6727,
      "Shaw": 6728,
      "distress": 6729,
      "spokesperson": 6730,
      "structure": 6731,
      "Though": 6732,
      "intense": 6733,
      "Mario": 6734,
      "appearing": 6735,
      "Commons": 6736,
      "Greece": 6737,
      "dd": 6738,
      "cous": 6739,
      "Disney": 6740,
      "incredibly": 6741,
      "robbery": 6742,
      "Power": 6743,
      "Bristol": 6744,
      "PC": 6745,
      "delighted": 6746,
      "lined": 6747,
      "tip": 6748,
      "Philadel": 6749,
      "overseas": 6750,
      "inois": 6751,
      "Bad": 6752,
      "multi": 6753,
      "Martinez": 6754,
      "Stoke": 6755,
      "Free": 6756,
      "registered": 6757,
      "joke": 6758,
      "dedicated": 6759,
      "Services": 6760,
      "iland": 6761,
      "involvement": 6762,
      "beer": 6763,
      "casual": 6764,
      "Abbott": 6765,
      "Philadelphia": 6766,
      "haul": 6767,
      "gram": 6768,
      "Nico": 6769,
      "Perry": 6770,
      "repair": 6771,
      "thin": 6772,
      "disappearance": 6773,
      "relatively": 6774,
      "rural": 6775,
      "facilities": 6776,
      "Edwards": 6777,
      "replied": 6778,
      "sanctions": 6779,
      "votes": 6780,
      "chef": 6781,
      "guar": 6782,
      "offence": 6783,
      "Woods": 6784,
      "Local": 6785,
      "sweet": 6786,
      "SE": 6787,
      "aler": 6788,
      "pleased": 6789,
      "seed": 6790,
      "Brooklyn": 6791,
      "Illinois": 6792,
      "ultimately": 6793,
      "analysis": 6794,
      "advent": 6795,
      "milk": 6796,
      "walls": 6797,
      "Broad": 6798,
      "intend": 6799,
      "demanded": 6800,
      "Pass": 6801,
      "aston": 6802,
      "Brother": 6803,
      "solar": 6804,
      "Cry": 6805,
      "abdu": 6806,
      "adopted": 6807,
      "demanding": 6808,
      "Five": 6809,
      "itarian": 6810,
      "911": 6811,
      "disappointed": 6812,
      "aven": 6813,
      "abused": 6814,
      "shares": 6815,
      "radical": 6816,
      "gow": 6817,
      "wounds": 6818,
      "Aston": 6819,
      "recommend": 6820,
      "rell": 6821,
      "conce": 6822,
      "lists": 6823,
      "Av": 6824,
      "Bab": 6825,
      "agu": 6826,
      "legg": 6827,
      "Pot": 6828,
      "amoun": 6829,
      "Amanda": 6830,
      "NATO": 6831,
      "platform": 6832,
      "oth": 6833,
      "featuring": 6834,
      "widespread": 6835,
      "Pers": 6836,
      "cream": 6837,
      "Lib": 6838,
      "bat": 6839,
      "Stewart": 6840,
      "exclusive": 6841,
      "appointed": 6842,
      "handle": 6843,
      "specialist": 6844,
      "gor": 6845,
      "Your": 6846,
      "wreck": 6847,
      "admits": 6848,
      "Hy": 6849,
      "Luke": 6850,
      "copy": 6851,
      "operate": 6852,
      "essions": 6853,
      "Deputy": 6854,
      "fold": 6855,
      "Where": 6856,
      "incent": 6857,
      "conclus": 6858,
      "mud": 6859,
      "experiment": 6860,
      "promote": 6861,
      "withdraw": 6862,
      "ema": 6863,
      "fires": 6864,
      "sect": 6865,
      "scared": 6866,
      "phan": 6867,
      "Live": 6868,
      "twi": 6869,
      "guarante": 6870,
      "Jean": 6871,
      "inn": 6872,
      "Fel": 6873,
      "Brom": 6874,
      "Tar": 6875,
      "extended": 6876,
      "Tun": 6877,
      "becomes": 6878,
      "amond": 6879,
      "arrests": 6880,
      "Hunt": 6881,
      "enor": 6882,
      "Doctors": 6883,
      "tran": 6884,
      "archite": 6885,
      "rally": 6886,
      "alia": 6887,
      "ipe": 6888,
      "enez": 6889,
      "Tam": 6890,
      "Hillary": 6891,
      "label": 6892,
      "concept": 6893,
      "cann": 6894,
      "cheap": 6895,
      "shore": 6896,
      "twe": 6897,
      "aggressive": 6898,
      "battery": 6899,
      "Guard": 6900,
      "Mitche": 6901,
      "credi": 6902,
      "Egyptian": 6903,
      "Bruce": 6904,
      "matters": 6905,
      "stitutional": 6906,
      "contained": 6907,
      "cticut": 6908,
      "Gerrard": 6909,
      "thal": 6910,
      "bathroom": 6911,
      "shift": 6912,
      "Connecticut": 6913,
      "tonight": 6914,
      "pel": 6915,
      "enthus": 6916,
      "irty": 6917,
      "Glas": 6918,
      "hadn": 6919,
      "Asked": 6920,
      "Southern": 6921,
      "Jeremy": 6922,
      "Happ": 6923,
      "compar": 6924,
      "purpose": 6925,
      "asks": 6926,
      "travelled": 6927,
      "commitment": 6928,
      "Kay": 6929,
      "wan": 6930,
      "1998": 6931,
      "attending": 6932,
      "frame": 6933,
      "jihad": 6934,
      "reward": 6935,
      "explains": 6936,
      "ingham": 6937,
      "Guardi": 6938,
      "caf": 6939,
      "hug": 6940,
      "Exper": 6941,
      "Lincol": 6942,
      "gained": 6943,
      "Alab": 6944,
      "igg": 6945,
      "types": 6946,
      "Philipp": 6947,
      "oft": 6948,
      "Mitchell": 6949,
      "Sl": 6950,
      "Vi": 6951,
      "rush": 6952,
      "Leg": 6953,
      "brilliant": 6954,
      "entit": 6955,
      "windows": 6956,
      "preser": 6957,
      "Pear": 6958,
      "headquarters": 6959,
      "eping": 6960,
      "shouldn": 6961,
      "Carter": 6962,
      "posts": 6963,
      "Bloom": 6964,
      "dale": 6965,
      "crucial": 6966,
      "78": 6967,
      "veget": 6968,
      "describe": 6969,
      "caution": 6970,
      "Major": 6971,
      "sits": 6972,
      "izz": 6973,
      "grandfather": 6974,
      "Lincoln": 6975,
      "properties": 6976,
      "winners": 6977,
      "Russell": 6978,
      "Switzer": 6979,
      "mart": 6980,
      "cler": 6981,
      "capacity": 6982,
      "Gil": 6983,
      "anywhere": 6984,
      "stairs": 6985,
      "Brand": 6986,
      "Rangers": 6987,
      "opportunities": 6988,
      "closing": 6989,
      "minster": 6990,
      "cruel": 6991,
      "OS": 6992,
      "drone": 6993,
      "bullet": 6994,
      "tourist": 6995,
      "Belgium": 6996,
      "covering": 6997,
      "Administration": 6998,
      "Nig": 6999,
      "vig": 7000,
      "ato": 7001,
      "smail": 7002,
      "interesting": 7003,
      "95": 7004,
      "iven": 7005,
      "ideas": 7006,
      "sac": 7007,
      "cow": 7008,
      "atically": 7009,
      "overnight": 7010,
      "entr": 7011,
      "vet": 7012,
      "Investigators": 7013,
      "celebrated": 7014,
      "implement": 7015,
      "childhood": 7016,
      "testim": 7017,
      "Edin": 7018,
      "titles": 7019,
      "punishment": 7020,
      "Fran": 7021,
      "orses": 7022,
      "collected": 7023,
      "spin": 7024,
      "Ale": 7025,
      "governments": 7026,
      "Aar": 7027,
      "Hills": 7028,
      "Seattle": 7029,
      "panic": 7030,
      "brown": 7031,
      "approval": 7032,
      "walks": 7033,
      "areness": 7034,
      "servation": 7035,
      "Switzerland": 7036,
      "temporary": 7037,
      "Has": 7038,
      "ike": 7039,
      "sheriff": 7040,
      "patrol": 7041,
      "otelli": 7042,
      "idelines": 7043,
      "cedes": 7044,
      "Lisa": 7045,
      "rists": 7046,
      "fewer": 7047,
      "riding": 7048,
      "etime": 7049,
      "variety": 7050,
      "dete": 7051,
      "Scientists": 7052,
      "locations": 7053,
      "Balotelli": 7054,
      "otherwise": 7055,
      "Zimmer": 7056,
      "celebrating": 7057,
      "hanging": 7058,
      "sisters": 7059,
      "mansion": 7060,
      "taste": 7061,
      "describes": 7062,
      "Hawai": 7063,
      "rated": 7064,
      "odes": 7065,
      "Sk": 7066,
      "apply": 7067,
      "recalled": 7068,
      "gles": 7069,
      "defended": 7070,
      "sector": 7071,
      "consequences": 7072,
      "Researchers": 7073,
      "Hus": 7074,
      "Portugal": 7075,
      "burning": 7076,
      "defe": 7077,
      "restaurants": 7078,
      "criminals": 7079,
      "Conservative": 7080,
      "inate": 7081,
      "forcing": 7082,
      "Utah": 7083,
      "county": 7084,
      "Gro": 7085,
      "exciting": 7086,
      "Thanks": 7087,
      "weren": 7088,
      "remarkable": 7089,
      "Anne": 7090,
      "bors": 7091,
      "couldnt": 7092,
      "Atlet": 7093,
      "companied": 7094,
      "suspicious": 7095,
      "acular": 7096,
      "Heath": 7097,
      "guide": 7098,
      "accompl": 7099,
      "Alabama": 7100,
      "Thor": 7101,
      "mere": 7102,
      "depression": 7103,
      "settlement": 7104,
      "Ward": 7105,
      "hired": 7106,
      "regarding": 7107,
      "athletes": 7108,
      "movies": 7109,
      "listen": 7110,
      "profession": 7111,
      "neighbours": 7112,
      "entry": 7113,
      "temperature": 7114,
      "projects": 7115,
      "rit": 7116,
      "bby": 7117,
      "Tes": 7118,
      "toll": 7119,
      "ifts": 7120,
      "apology": 7121,
      "bris": 7122,
      "Brend": 7123,
      "Fre": 7124,
      "gue": 7125,
      "denies": 7126,
      "120": 7127,
      "Sandy": 7128,
      "Les": 7129,
      "shelter": 7130,
      "trophy": 7131,
      "Lor": 7132,
      "brid": 7133,
      "traveling": 7134,
      "scape": 7135,
      "itis": 7136,
      "ricane": 7137,
      "Aff": 7138,
      "tap": 7139,
      "warrant": 7140,
      "enormous": 7141,
      "icing": 7142,
      "Griff": 7143,
      "Roger": 7144,
      "goods": 7145,
      "Clar": 7146,
      "afr": 7147,
      "deals": 7148,
      "Adams": 7149,
      "taught": 7150,
      "independence": 7151,
      "pron": 7152,
      "blank": 7153,
      "Marsh": 7154,
      "guest": 7155,
      "iro": 7156,
      "rolled": 7157,
      "vy": 7158,
      "acks": 7159,
      "existing": 7160,
      "cam": 7161,
      "glam": 7162,
      "ls": 7163,
      "hell": 7164,
      "delivery": 7165,
      "Several": 7166,
      "eval": 7167,
      "loud": 7168,
      "flowers": 7169,
      "contrast": 7170,
      "athle": 7171,
      "links": 7172,
      "Having": 7173,
      "cited": 7174,
      "touched": 7175,
      "Thailand": 7176,
      "color": 7177,
      "Board": 7178,
      "Flo": 7179,
      "Rev": 7180,
      "Gab": 7181,
      "Arm": 7182,
      "Atletico": 7183,
      "61": 7184,
      "uff": 7185,
      "loving": 7186,
      "judg": 7187,
      "Winter": 7188,
      "priority": 7189,
      "bec": 7190,
      "impressed": 7191,
      "positions": 7192,
      "cuit": 7193,
      "hits": 7194,
      "burned": 7195,
      "Dubai": 7196,
      "Barcl": 7197,
      "demands": 7198,
      "oldest": 7199,
      "60s": 7200,
      "Osborne": 7201,
      "abilities": 7202,
      "Bagh": 7203,
      "glasses": 7204,
      "cers": 7205,
      "aga": 7206,
      "QPR": 7207,
      "youngest": 7208,
      "Contr": 7209,
      "Mother": 7210,
      "sentencing": 7211,
      "fed": 7212,
      "crying": 7213,
      "Rome": 7214,
      "checked": 7215,
      "Si": 7216,
      "package": 7217,
      "chez": 7218,
      "puts": 7219,
      "clients": 7220,
      "honour": 7221,
      "Chancellor": 7222,
      "execution": 7223,
      "attracted": 7224,
      "checks": 7225,
      "sporting": 7226,
      "ateful": 7227,
      "Beckham": 7228,
      "Raf": 7229,
      "Prote": 7230,
      "condemned": 7231,
      "posite": 7232,
      "application": 7233,
      "pace": 7234,
      "Fernand": 7235,
      "SW": 7236,
      "onso": 7237,
      "chi": 7238,
      "anonymous": 7239,
      "Lane": 7240,
      "Ref": 7241,
      "Garcia": 7242,
      "Pay": 7243,
      "verted": 7244,
      "testified": 7245,
      "ius": 7246,
      "accompanied": 7247,
      "interviewed": 7248,
      "feeding": 7249,
      "Micro": 7250,
      "throwing": 7251,
      "regional": 7252,
      "taxes": 7253,
      "tories": 7254,
      "Swiss": 7255,
      "infected": 7256,
      "Fur": 7257,
      "Kr": 7258,
      "Glasgow": 7259,
      "inves": 7260,
      "apps": 7261,
      "extensive": 7262,
      "sized": 7263,
      "containing": 7264,
      "advertising": 7265,
      "sugar": 7266,
      "branded": 7267,
      "hosts": 7268,
      "Marg": 7269,
      "resulted": 7270,
      "Barbar": 7271,
      "Notting": 7272,
      "cord": 7273,
      "attered": 7274,
      "papers": 7275,
      "Amy": 7276,
      "Emer": 7277,
      "Celtic": 7278,
      "firefighters": 7279,
      "environmental": 7280,
      "indicated": 7281,
      "attached": 7282,
      "closure": 7283,
      "afraid": 7284,
      "Clegg": 7285,
      "Bron": 7286,
      "rugby": 7287,
      "detectives": 7288,
      "promin": 7289,
      "motion": 7290,
      "represents": 7291,
      "trait": 7292,
      "1997": 7293,
      "cancel": 7294,
      "sam": 7295,
      "kit": 7296,
      "producer": 7297,
      "Row": 7298,
      "Gall": 7299,
      "icit": 7300,
      "typically": 7301,
      "Pas": 7302,
      "liance": 7303,
      "brave": 7304,
      "tex": 7305,
      "summit": 7306,
      "oy": 7307,
      "AN": 7308,
      "combined": 7309,
      "Helen": 7310,
      "clinic": 7311,
      "cancell": 7312,
      "eleph": 7313,
      "firing": 7314,
      "barely": 7315,
      "infect": 7316,
      "Bright": 7317,
      "commander": 7318,
      "Blair": 7319,
      "loves": 7320,
      "chocolate": 7321,
      "Cher": 7322,
      "Mali": 7323,
      "alert": 7324,
      "excell": 7325,
      "Inc": 7326,
      "EW": 7327,
      "Az": 7328,
      "Sudan": 7329,
      "awareness": 7330,
      "Sanchez": 7331,
      "improved": 7332,
      "inappropriate": 7333,
      "filming": 7334,
      "studio": 7335,
      "greet": 7336,
      "Cuba": 7337,
      "Stuart": 7338,
      "grees": 7339,
      "basketball": 7340,
      "oles": 7341,
      "striking": 7342,
      "Han": 7343,
      "Hes": 7344,
      "loyd": 7345,
      "killings": 7346,
      "strange": 7347,
      "deem": 7348,
      "stroke": 7349,
      "Special": 7350,
      "manufactur": 7351,
      "funny": 7352,
      "stole": 7353,
      "Secret": 7354,
      "grabbed": 7355,
      "testimony": 7356,
      "Warren": 7357,
      "dressing": 7358,
      "acknowledged": 7359,
      "Soph": 7360,
      "civilian": 7361,
      "ambassador": 7362,
      "ains": 7363,
      "torneys": 7364,
      "olly": 7365,
      "Edi": 7366,
      "advance": 7367,
      "Ukrainian": 7368,
      "strateg": 7369,
      "succeed": 7370,
      "convin": 7371,
      "protected": 7372,
      "Zimmerman": 7373,
      "tracks": 7374,
      "itary": 7375,
      "liqu": 7376,
      "territory": 7377,
      "Ay": 7378,
      "carbon": 7379,
      "Juan": 7380,
      "entering": 7381,
      "ethnic": 7382,
      "degrees": 7383,
      "branch": 7384,
      "Leban": 7385,
      "clock": 7386,
      "Education": 7387,
      "Pent": 7388,
      "Bash": 7389,
      "Officer": 7390,
      "Ol": 7391,
      "itage": 7392,
      "loyal": 7393,
      "speculation": 7394,
      "Rem": 7395,
      "ighth": 7396,
      "dependent": 7397,
      "vowed": 7398,
      "pressing": 7399,
      "Hot": 7400,
      "thick": 7401,
      "homeless": 7402,
      "delay": 7403,
      "factor": 7404,
      "Westminster": 7405,
      "celebration": 7406,
      "hunting": 7407,
      "effectively": 7408,
      "resolution": 7409,
      "teaching": 7410,
      "ordeal": 7411,
      "FOR": 7412,
      "passport": 7413,
      "Mercedes": 7414,
      "Baghdad": 7415,
      "affairs": 7416,
      "desire": 7417,
      "........": 7418,
      "Flight": 7419,
      "remind": 7420,
      "Charlot": 7421,
      "stealing": 7422,
      "missions": 7423,
      "tape": 7424,
      "convinced": 7425,
      "rot": 7426,
      "Chile": 7427,
      "Aaron": 7428,
      "Ky": 7429,
      "Hodgson": 7430,
      "stages": 7431,
      "Crystal": 7432,
      "tens": 7433,
      "Everyone": 7434,
      "satellite": 7435,
      "hase": 7436,
      "Fall": 7437,
      "Tro": 7438,
      "wet": 7439,
      "sustained": 7440,
      "drome": 7441,
      "opponents": 7442,
      "artists": 7443,
      "Jac": 7444,
      "fishing": 7445,
      "suits": 7446,
      "ministry": 7447,
      "bombs": 7448,
      "edition": 7449,
      "Derby": 7450,
      "ffield": 7451,
      "organisation": 7452,
      "mystery": 7453,
      "ridge": 7454,
      "Jesus": 7455,
      "outfit": 7456,
      "suggesting": 7457,
      "bosses": 7458,
      "graduate": 7459,
      "Business": 7460,
      "explor": 7461,
      "mechan": 7462,
      "occasions": 7463,
      "detailed": 7464,
      "Medic": 7465,
      "Howard": 7466,
      "renew": 7467,
      "mole": 7468,
      "regret": 7469,
      "reserved": 7470,
      "breathing": 7471,
      "Vis": 7472,
      "praised": 7473,
      "reads": 7474,
      "urses": 7475,
      "requires": 7476,
      "funded": 7477,
      "Sams": 7478,
      "plun": 7479,
      "establish": 7480,
      "yer": 7481,
      "enh": 7482,
      "taxi": 7483,
      "1980s": 7484,
      "cats": 7485,
      "hack": 7486,
      "todd": 7487,
      "screaming": 7488,
      "advised": 7489,
      "Py": 7490,
      "crazy": 7491,
      "Democrat": 7492,
      "5million": 7493,
      "cricket": 7494,
      "olph": 7495,
      "anticip": 7496,
      "gt": 7497,
      "heim": 7498,
      "dim": 7499,
      "discrim": 7500,
      "Lion": 7501,
      "TA": 7502,
      "***": 7503,
      "kel": 7504,
      "hiding": 7505,
      "rehab": 7506,
      "athy": 7507,
      "Bond": 7508,
      "Right": 7509,
      "indict": 7510,
      "Emily": 7511,
      "manage": 7512,
      "stig": 7513,
      "Wis": 7514,
      "channel": 7515,
      "utions": 7516,
      "Cornwall": 7517,
      "aya": 7518,
      "Susan": 7519,
      "render": 7520,
      "referee": 7521,
      "nett": 7522,
      "competitive": 7523,
      "Safety": 7524,
      "Vide": 7525,
      "flames": 7526,
      "elsewhere": 7527,
      "comedy": 7528,
      "eu": 7529,
      "Slo": 7530,
      "cheek": 7531,
      "ITV": 7532,
      "bacter": 7533,
      "united": 7534,
      "Bull": 7535,
      "Form": 7536,
      "Kenya": 7537,
      "GB": 7538,
      "idi": 7539,
      "Collins": 7540,
      "lers": 7541,
      "iron": 7542,
      "keys": 7543,
      "manner": 7544,
      "HIV": 7545,
      "roid": 7546,
      "divers": 7547,
      "experiences": 7548,
      "lake": 7549,
      "pump": 7550,
      "kers": 7551,
      "races": 7552,
      "fas": 7553,
      "Sportsmail": 7554,
      "poverty": 7555,
      "fiance": 7556,
      "wealthy": 7557,
      "wift": 7558,
      "accusations": 7559,
      "irates": 7560,
      "Sheffield": 7561,
      "kilome": 7562,
      "error": 7563,
      "bitter": 7564,
      "erie": 7565,
      "uine": 7566,
      "iously": 7567,
      "fiel": 7568,
      "assaulted": 7569,
      "gunman": 7570,
      "mini": 7571,
      "conven": 7572,
      "ologists": 7573,
      "colleague": 7574,
      "Friends": 7575,
      "icial": 7576,
      "aims": 7577,
      "sensitive": 7578,
      "zing": 7579,
      "hin": 7580,
      "Sgt": 7581,
      "icate": 7582,
      "investigations": 7583,
      "strip": 7584,
      "applied": 7585,
      "Magistrates": 7586,
      "courage": 7587,
      "racial": 7588,
      "horses": 7589,
      "ramp": 7590,
      "sounds": 7591,
      "searched": 7592,
      "ridic": 7593,
      "roit": 7594,
      "emails": 7595,
      "univers": 7596,
      "upper": 7597,
      "democracy": 7598,
      "Edinburgh": 7599,
      "Barclays": 7600,
      "imate": 7601,
      "deport": 7602,
      "mixed": 7603,
      "hotels": 7604,
      "Tok": 7605,
      "spons": 7606,
      "evolution": 7607,
      "usal": 7608,
      "Devon": 7609,
      "Hit": 7610,
      "Ku": 7611,
      "aer": 7612,
      "counted": 7613,
      "writes": 7614,
      "crossing": 7615,
      "Duncan": 7616,
      "Stat": 7617,
      "Barbara": 7618,
      "rett": 7619,
      "Spring": 7620,
      "enny": 7621,
      "eler": 7622,
      "creation": 7623,
      "towns": 7624,
      "Domin": 7625,
      "berry": 7626,
      "represented": 7627,
      "Low": 7628,
      "Pres": 7629,
      "GM": 7630,
      "smartphone": 7631,
      "collapse": 7632,
      "predicted": 7633,
      "confront": 7634,
      "moun": 7635,
      "classes": 7636,
      "Sad": 7637,
      "Samsung": 7638,
      "stamp": 7639,
      "stations": 7640,
      "Authority": 7641,
      "neither": 7642,
      "creative": 7643,
      "icks": 7644,
      "McL": 7645,
      "uster": 7646,
      "slowly": 7647,
      "Rachel": 7648,
      "BM": 7649,
      "toilet": 7650,
      "genuine": 7651,
      "therefore": 7652,
      "Ret": 7653,
      "relationships": 7654,
      "meetings": 7655,
      "contains": 7656,
      "earthquake": 7657,
      "Cu": 7658,
      "generally": 7659,
      "Maryland": 7660,
      "paint": 7661,
      "Oreg": 7662,
      "plate": 7663,
      "stronger": 7664,
      "ora": 7665,
      "spectacular": 7666,
      "Did": 7667,
      "Beat": 7668,
      "organizations": 7669,
      "fortunate": 7670,
      "seasons": 7671,
      "Student": 7672,
      "witnessed": 7673,
      "sink": 7674,
      "oms": 7675,
      "moto": 7676,
      "representative": 7677,
      "procedures": 7678,
      "worlds": 7679,
      "ximately": 7680,
      "asion": 7681,
      "secut": 7682,
      "Phillips": 7683,
      "Laden": 7684,
      "Oregon": 7685,
      "equival": 7686,
      "Cele": 7687,
      "retirement": 7688,
      "Vol": 7689,
      "bones": 7690,
      "bru": 7691,
      "Nottingham": 7692,
      "inspiration": 7693,
      "fli": 7694,
      "headlines": 7695,
      "migrants": 7696,
      "owa": 7697,
      "cert": 7698,
      "Gib": 7699,
      "marketing": 7700,
      "Detroit": 7701,
      "Welsh": 7702,
      "portr": 7703,
      "Defence": 7704,
      "Cour": 7705,
      "fab": 7706,
      "switch": 7707,
      "teens": 7708,
      "backs": 7709,
      "Hend": 7710,
      "fet": 7711,
      "shine": 7712,
      "bean": 7713,
      "chat": 7714,
      "disabled": 7715,
      "smashed": 7716,
      "1970s": 7717,
      "Rand": 7718,
      "encouraged": 7719,
      "materials": 7720,
      "awards": 7721,
      "referring": 7722,
      "Had": 7723,
      "Viet": 7724,
      "pulling": 7725,
      "outcome": 7726,
      "Louise": 7727,
      "expecting": 7728,
      "Entertain": 7729,
      "cultural": 7730,
      "Mull": 7731,
      "oming": 7732,
      "twin": 7733,
      "acad": 7734,
      "significantly": 7735,
      "anded": 7736,
      "supermarket": 7737,
      "industrial": 7738,
      "tos": 7739,
      "axy": 7740,
      "meals": 7741,
      "Pictured": 7742,
      "Na": 7743,
      "endum": 7744,
      "blocked": 7745,
      "entitled": 7746,
      "umes": 7747,
      "crews": 7748,
      "visits": 7749,
      "Morning": 7750,
      "convict": 7751,
      "selection": 7752,
      "resigned": 7753,
      "anybody": 7754,
      "offices": 7755,
      "keeps": 7756,
      "representing": 7757,
      "volunteers": 7758,
      "amo": 7759,
      "veterans": 7760,
      "mund": 7761,
      "purchase": 7762,
      "gear": 7763,
      "deny": 7764,
      "Nelson": 7765,
      "horror": 7766,
      "flooding": 7767,
      "SU": 7768,
      "blaze": 7769,
      "odds": 7770,
      "please": 7771,
      "Opin": 7772,
      "liked": 7773,
      "Tennes": 7774,
      "cruise": 7775,
      "Nazi": 7776,
      "skull": 7777,
      "Dre": 7778,
      "Wol": 7779,
      "fortune": 7780,
      "Mount": 7781,
      "uters": 7782,
      "strongly": 7783,
      "partnership": 7784,
      "monitoring": 7785,
      "voting": 7786,
      "sustain": 7787,
      "Snowden": 7788,
      "brings": 7789,
      "chicken": 7790,
      "directed": 7791,
      "values": 7792,
      "technical": 7793,
      "electricity": 7794,
      "eneath": 7795,
      "AM": 7796,
      "aggrav": 7797,
      "emble": 7798,
      "88": 7799,
      "Hud": 7800,
      "Treas": 7801,
      "settled": 7802,
      "vant": 7803,
      "handling": 7804,
      "memories": 7805,
      "household": 7806,
      "theat": 7807,
      "nox": 7808,
      "Katie": 7809,
      "mood": 7810,
      "Arabia": 7811,
      "aide": 7812,
      "eh": 7813,
      "ima": 7814,
      "faster": 7815,
      "essing": 7816,
      "ING": 7817,
      "Experts": 7818,
      "drawing": 7819,
      "wildlife": 7820,
      "Civil": 7821,
      "confron": 7822,
      "Thank": 7823,
      "citing": 7824,
      "ilst": 7825,
      "compound": 7826,
      "politan": 7827,
      "Dick": 7828,
      "Ul": 7829,
      "chap": 7830,
      "pocket": 7831,
      "Night": 7832,
      "opposite": 7833,
      "brary": 7834,
      "organis": 7835,
      "diplomatic": 7836,
      "oke": 7837,
      "Britons": 7838,
      "supplies": 7839,
      "curren": 7840,
      "waited": 7841,
      "Eve": 7842,
      "substant": 7843,
      ".-": 7844,
      "Class": 7845,
      "1990s": 7846,
      "negotiations": 7847,
      "!!": 7848,
      "fract": 7849,
      "Golden": 7850,
      "facts": 7851,
      "Gad": 7852,
      "Sn": 7853,
      "interviews": 7854,
      "nobody": 7855,
      "dule": 7856,
      "marine": 7857,
      "recovering": 7858,
      "Video": 7859,
      "ati": 7860,
      "Cabinet": 7861,
      "astro": 7862,
      "forever": 7863,
      "equivalent": 7864,
      "Box": 7865,
      "amedics": 7866,
      "falls": 7867,
      "computers": 7868,
      "Book": 7869,
      "Brendan": 7870,
      "Around": 7871,
      "roughly": 7872,
      "importance": 7873,
      "requests": 7874,
      "Iowa": 7875,
      "Ted": 7876,
      "popularity": 7877,
      "exhibition": 7878,
      "Hawaii": 7879,
      "shr": 7880,
      "Greek": 7881,
      "fame": 7882,
      "estimates": 7883,
      "Federer": 7884,
      "Somalia": 7885,
      "pilots": 7886,
      "1996": 7887,
      "bark": 7888,
      "begun": 7889,
      "Poland": 7890,
      "Sub": 7891,
      "viral": 7892,
      "posure": 7893,
      "ups": 7894,
      "Manuel": 7895,
      "diabet": 7896,
      "Por": 7897,
      "pour": 7898,
      "legit": 7899,
      "referendum": 7900,
      "Roma": 7901,
      "aside": 7902,
      "belt": 7903,
      "payment": 7904,
      "Ven": 7905,
      "debris": 7906,
      "tren": 7907,
      "knock": 7908,
      "frag": 7909,
      "garage": 7910,
      "Microsoft": 7911,
      "uniform": 7912,
      "vard": 7913,
      "opposed": 7914,
      "1994": 7915,
      "terrif": 7916,
      "stunned": 7917,
      "McDonald": 7918,
      "Midlands": 7919,
      "ighter": 7920,
      "moral": 7921,
      "Commissioner": 7922,
      "probation": 7923,
      "ration": 7924,
      "imprison": 7925,
      "shame": 7926,
      "cano": 7927,
      "activist": 7928,
      "avo": 7929,
      "aved": 7930,
      "parked": 7931,
      "networks": 7932,
      "ippi": 7933,
      "uan": 7934,
      "Ark": 7935,
      "holidays": 7936,
      "picking": 7937,
      "websites": 7938,
      "delayed": 7939,
      "alarm": 7940,
      "persu": 7941,
      "Isa": 7942,
      "Cair": 7943,
      "een": 7944,
      "vous": 7945,
      "Opinion": 7946,
      "pages": 7947,
      "Captain": 7948,
      "regulations": 7949,
      "Colombia": 7950,
      "ergy": 7951,
      "destination": 7952,
      "safely": 7953,
      "Urug": 7954,
      "lawmakers": 7955,
      "viewed": 7956,
      "Urugu": 7957,
      "Sony": 7958,
      "businessman": 7959,
      "answers": 7960,
      "Sweden": 7961,
      "asty": 7962,
      "footballer": 7963,
      "division": 7964,
      "Cir": 7965,
      "Jong": 7966,
      "obl": 7967,
      "imposed": 7968,
      "reception": 7969,
      "objects": 7970,
      "Entertainment": 7971,
      "Eastern": 7972,
      "dancing": 7973,
      "onna": 7974,
      "Austin": 7975,
      "fields": 7976,
      "Mountain": 7977,
      "Minnes": 7978,
      "Charlotte": 7979,
      "Pere": 7980,
      "factors": 7981,
      "Staff": 7982,
      "balls": 7983,
      "prohib": 7984,
      "eor": 7985,
      "Cho": 7986,
      "Alaska": 7987,
      "painted": 7988,
      "achieved": 7989,
      "Margaret": 7990,
      "Anim": 7991,
      "ranked": 7992,
      "Freed": 7993,
      "units": 7994,
      "cycling": 7995,
      "AL": 7996,
      "collision": 7997,
      "Tennessee": 7998,
      "toler": 7999,
      "qualified": 8000,
      "crowds": 8001,
      "Bailey": 8002,
      "bears": 8003,
      "Berlin": 8004,
      "Castro": 8005,
      "rounds": 8006,
      "religion": 8007,
      "CH": 8008,
      "Ton": 8009,
      "sor": 8010,
      "youngsters": 8011,
      "beneath": 8012,
      "Venez": 8013,
      "Mississ": 8014,
      "traveled": 8015,
      "pets": 8016,
      "studying": 8017,
      "pronounced": 8018,
      "Ag": 8019,
      "rice": 8020,
      "remin": 8021,
      "Louisiana": 8022,
      "Fro": 8023,
      "medication": 8024,
      "Malaysia": 8025,
      "Tokyo": 8026,
      "twins": 8027,
      "peaceful": 8028,
      "kidnapping": 8029,
      "proceedings": 8030,
      "songs": 8031,
      "Bos": 8032,
      "Pho": 8033,
      "nd": 8034,
      "zero": 8035,
      "McCain": 8036,
      "trips": 8037,
      "transferred": 8038,
      "vs": 8039,
      "resem": 8040,
      "powered": 8041,
      "Armstrong": 8042,
      "Kansas": 8043,
      "select": 8044,
      "Keith": 8045,
      "Minnesota": 8046,
      "Adri": 8047,
      "reven": 8048,
      "cloud": 8049,
      "Fest": 8050,
      "probe": 8051,
      "encer": 8052,
      "reforms": 8053,
      "sail": 8054,
      "actual": 8055,
      "Father": 8056,
      "tel": 8057,
      "lover": 8058,
      "trains": 8059,
      "Pentagon": 8060,
      "Venezuel": 8061,
      "zoo": 8062,
      "Oliver": 8063,
      "Reid": 8064,
      "Grant": 8065,
      "Ry": 8066,
      "orse": 8067,
      "pros": 8068,
      "cession": 8069,
      "detention": 8070,
      "bug": 8071,
      "Forest": 8072,
      "Uruguay": 8073,
      "upcoming": 8074,
      "rolling": 8075,
      "Mississippi": 8076,
      "rocks": 8077,
      "71": 8078,
      "Vlad": 8079,
      "escal": 8080,
      "abis": 8081,
      "disgr": 8082,
      "militant": 8083,
      "fundr": 8084,
      "breakfast": 8085,
      "Key": 8086,
      "Telegraph": 8087,
      "Lucy": 8088,
      "Lawrence": 8089,
      "NBA": 8090,
      "approximately": 8091,
      "Stock": 8092,
      "attorneys": 8093,
      "discrimination": 8094,
      "escort": 8095,
      "peak": 8096,
      "coroner": 8097,
      "Ful": 8098,
      "flash": 8099,
      "Surrey": 8100,
      "Ban": 8101,
      "esity": 8102,
      "managers": 8103,
      "Spurs": 8104,
      "Clarke": 8105,
      ".)": 8106,
      "managing": 8107,
      "speaks": 8108,
      "Mack": 8109,
      "assass": 8110,
      "discussed": 8111,
      "baseball": 8112,
      "holes": 8113,
      "taxpayers": 8114,
      "Fund": 8115,
      "harder": 8116,
      "ec": 8117,
      "zed": 8118,
      "felony": 8119,
      "Div": 8120,
      "tweets": 8121,
      "gage": 8122,
      "nest": 8123,
      "entertainment": 8124,
      "Knight": 8125,
      "Islamist": 8126,
      "typical": 8127,
      "stan": 8128,
      "exit": 8129,
      "targeting": 8130,
      "73": 8131,
      "RC": 8132,
      "cope": 8133,
      "amounts": 8134,
      "tired": 8135,
      "crossed": 8136,
      "absence": 8137,
      "everywhere": 8138,
      "boats": 8139,
      "locals": 8140,
      "disgust": 8141,
      "Tre": 8142,
      "riots": 8143,
      "designs": 8144,
      "defensive": 8145,
      "deemed": 8146,
      "quoted": 8147,
      "angered": 8148,
      "extent": 8149,
      "fitted": 8150,
      "pending": 8151,
      "wrapped": 8152,
      "Silver": 8153,
      "nurses": 8154,
      "theory": 8155,
      "bottles": 8156,
      "throat": 8157,
      "appointment": 8158,
      "concert": 8159,
      "Nether": 8160,
      "battling": 8161,
      "Bri": 8162,
      "urgent": 8163,
      "scientific": 8164,
      "redi": 8165,
      "elim": 8166,
      "Downing": 8167,
      "coord": 8168,
      "74": 8169,
      "jacket": 8170,
      "thetic": 8171,
      "reference": 8172,
      "leep": 8173,
      "flown": 8174,
      "specifically": 8175,
      "restrictions": 8176,
      "therapy": 8177,
      "illegally": 8178,
      "wage": 8179,
      "optim": 8180,
      "triumph": 8181,
      "fier": 8182,
      "tattoo": 8183,
      "TM": 8184,
      "Inde": 8185,
      "inmates": 8186,
      "Indonesia": 8187,
      "jan": 8188,
      "personally": 8189,
      "stretch": 8190,
      "Awards": 8191,
      "Made": 8192,
      "Ney": 8193,
      "missile": 8194,
      "Hundred": 8195,
      "Serge": 8196,
      "Antonio": 8197,
      "welcomed": 8198,
      "seventh": 8199,
      "admitting": 8200,
      "grateful": 8201,
      "pa": 8202,
      "photographed": 8203,
      "cuff": 8204,
      "Ahmed": 8205,
      "constitutional": 8206,
      "1995": 8207,
      "Sul": 8208,
      "Ye": 8209,
      "lod": 8210,
      "departure": 8211,
      "salary": 8212,
      "Ald": 8213,
      "issa": 8214,
      "residence": 8215,
      "smell": 8216,
      "youngster": 8217,
      "addressed": 8218,
      "warnings": 8219,
      "Ta": 8220,
      "acey": 8221,
      "Wy": 8222,
      "booked": 8223,
      "perfectly": 8224,
      "license": 8225,
      "Darren": 8226,
      "abortion": 8227,
      "enda": 8228,
      "Qatar": 8229,
      "humanitarian": 8230,
      "hosted": 8231,
      "torture": 8232,
      "uations": 8233,
      "rein": 8234,
      "eggs": 8235,
      "ballo": 8236,
      "Formula": 8237,
      "leton": 8238,
      "ambit": 8239,
      "Maybe": 8240,
      "yce": 8241,
      "noise": 8242,
      "nightm": 8243,
      "euro": 8244,
      "sufficient": 8245,
      "hammer": 8246,
      "lowest": 8247,
      "30pm": 8248,
      "cyc": 8249,
      "lifetime": 8250,
      "communication": 8251,
      "Nigel": 8252,
      "operated": 8253,
      "grey": 8254,
      "elite": 8255,
      "shoppers": 8256,
      "Emirates": 8257,
      "AD": 8258,
      "toy": 8259,
      "mont": 8260,
      "performances": 8261,
      "frequently": 8262,
      "ME": 8263,
      "survival": 8264,
      "79": 8265,
      "lb": 8266,
      "lessons": 8267,
      "painful": 8268,
      "phenomen": 8269,
      "folk": 8270,
      "oting": 8271,
      "spots": 8272,
      "stagger": 8273,
      "ullah": 8274,
      "OWN": 8275,
      "inf": 8276,
      "treating": 8277,
      "Cus": 8278,
      "Govern": 8279,
      "hens": 8280,
      "corporate": 8281,
      "Rice": 8282,
      "counsel": 8283,
      "Rub": 8284,
      "bread": 8285,
      "rat": 8286,
      "manslaughter": 8287,
      "Marco": 8288,
      "McIl": 8289,
      "Barry": 8290,
      "Plan": 8291,
      "medicine": 8292,
      "Bun": 8293,
      "neighbors": 8294,
      "proto": 8295,
      "NT": 8296,
      "Burnley": 8297,
      "lane": 8298,
      "sacked": 8299,
      "repre": 8300,
      "confessed": 8301,
      "coat": 8302,
      "secured": 8303,
      "QC": 8304,
      "mainly": 8305,
      "emotion": 8306,
      "Neymar": 8307,
      "Memor": 8308,
      "Maur": 8309,
      "abe": 8310,
      "onz": 8311,
      "servatives": 8312,
      "licence": 8313,
      "selected": 8314,
      "constantly": 8315,
      "inner": 8316,
      "ppers": 8317,
      "Dean": 8318,
      "personality": 8319,
      "conced": 8320,
      "electronic": 8321,
      "Singap": 8322,
      "itable": 8323,
      "dial": 8324,
      "Others": 8325,
      "mam": 8326,
      "decline": 8327,
      "cliff": 8328,
      "nity": 8329,
      "unfair": 8330,
      "ikh": 8331,
      "Celebr": 8332,
      "fierce": 8333,
      "aspect": 8334,
      "Murphy": 8335,
      "Editor": 8336,
      "Bah": 8337,
      "Rebec": 8338,
      "Sussex": 8339,
      "breaks": 8340,
      "Netherlands": 8341,
      "whist": 8342,
      "tin": 8343,
      "3D": 8344,
      "Pelle": 8345,
      "ulture": 8346,
      "ills": 8347,
      "cheer": 8348,
      "Gray": 8349,
      "ios": 8350,
      "championship": 8351,
      "Singapore": 8352,
      "Biden": 8353,
      "mature": 8354,
      "Hundreds": 8355,
      "Detective": 8356,
      "lean": 8357,
      "beloved": 8358,
      "raged": 8359,
      "telephone": 8360,
      "combination": 8361,
      "Rebecca": 8362,
      "argue": 8363,
      "allies": 8364,
      "ths": 8365,
      "promising": 8366,
      "1million": 8367,
      "Columb": 8368,
      "snap": 8369,
      "iatric": 8370,
      "yach": 8371,
      "regions": 8372,
      "usive": 8373,
      "Sovi": 8374,
      "Short": 8375,
      "toddler": 8376,
      "Pris": 8377,
      "imir": 8378,
      "Android": 8379,
      "singing": 8380,
      "discussion": 8381,
      "vens": 8382,
      "cake": 8383,
      "jection": 8384,
      "consistent": 8385,
      "transp": 8386,
      "Chan": 8387,
      "Happy": 8388,
      "unexpected": 8389,
      "pic": 8390,
      "offenders": 8391,
      "Bowl": 8392,
      "flow": 8393,
      "executed": 8394,
      "realized": 8395,
      "Spencer": 8396,
      "rical": 8397,
      "ourselves": 8398,
      "producing": 8399,
      "fits": 8400,
      "lett": 8401,
      "minority": 8402,
      "carries": 8403,
      "Denver": 8404,
      "aux": 8405,
      "Cleve": 8406,
      "suburb": 8407,
      "nationwide": 8408,
      "Ivan": 8409,
      "Project": 8410,
      "Gay": 8411,
      "bullying": 8412,
      "recommended": 8413,
      "deployed": 8414,
      "oping": 8415,
      "desc": 8416,
      "polls": 8417,
      "UE": 8418,
      "dropping": 8419,
      "youre": 8420,
      "Vice": 8421,
      "afterwards": 8422,
      "Bris": 8423,
      "carefully": 8424,
      "advanced": 8425,
      "foods": 8426,
      "battled": 8427,
      "aggravated": 8428,
      "fixt": 8429,
      "76": 8430,
      "sels": 8431,
      "Mandela": 8432,
      "engineer": 8433,
      "adviser": 8434,
      "entrance": 8435,
      "ading": 8436,
      "Tragic": 8437,
      "Djok": 8438,
      "Commun": 8439,
      "politician": 8440,
      "50s": 8441,
      "transplant": 8442,
      "roles": 8443,
      "unconscious": 8444,
      "von": 8445,
      "refle": 8446,
      "opponent": 8447,
      "consumer": 8448,
      "Dog": 8449,
      "Pis": 8450,
      "View": 8451,
      "harassment": 8452,
      "acing": 8453,
      "forth": 8454,
      "controls": 8455,
      "Avenue": 8456,
      "Bat": 8457,
      "glad": 8458,
      "Berry": 8459,
      "shirts": 8460,
      "weig": 8461,
      "Moyes": 8462,
      "Greater": 8463,
      "leaked": 8464,
      "uties": 8465,
      "aws": 8466,
      "www": 8467,
      "valuable": 8468,
      "boxes": 8469,
      "kilometers": 8470,
      "bian": 8471,
      "ingredi": 8472,
      "depict": 8473,
      "aken": 8474,
      "feelings": 8475,
      "rarely": 8476,
      "ultimate": 8477,
      "Case": 8478,
      "Cristiano": 8479,
      "82": 8480,
      "backing": 8481,
      "idency": 8482,
      "nervous": 8483,
      "enthusi": 8484,
      "ROLL": 8485,
      "Haz": 8486,
      "lee": 8487,
      "attitude": 8488,
      "Indiana": 8489,
      "Buckingham": 8490,
      "Tesco": 8491,
      "Djokovic": 8492,
      "Paren": 8493,
      "Wr": 8494,
      "overwhelming": 8495,
      "shadow": 8496,
      "Cleveland": 8497,
      "nan": 8498,
      "purchased": 8499,
      "McIlroy": 8500,
      "oon": 8501,
      "ician": 8502,
      "Lancash": 8503,
      "ael": 8504,
      "crete": 8505,
      "Ferrari": 8506,
      "rd": 8507,
      "bite": 8508,
      "tensions": 8509,
      "rena": 8510,
      "dreams": 8511,
      "jurors": 8512,
      "Latin": 8513,
      "encouraging": 8514,
      "Commonwealth": 8515,
      "griev": 8516,
      "ione": 8517,
      "silence": 8518,
      "reign": 8519,
      "pical": 8520,
      "glas": 8521,
      "porno": 8522,
      "answered": 8523,
      "trafficking": 8524,
      "iture": 8525,
      "Inspe": 8526,
      "defendants": 8527,
      "ulty": 8528,
      "physically": 8529,
      "Queensland": 8530,
      "notorious": 8531,
      "somewhere": 8532,
      "Pier": 8533,
      "assem": 8534,
      "Stafford": 8535,
      "Krist": 8536,
      "rec": 8537,
      "sures": 8538,
      "prol": 8539,
      "cousin": 8540,
      "astru": 8541,
      "Jun": 8542,
      "ucker": 8543,
      "questioning": 8544,
      "Please": 8545,
      "Kentucky": 8546,
      "Political": 8547,
      "Metropolitan": 8548,
      "excellent": 8549,
      "Lancashire": 8550,
      "het": 8551,
      "forest": 8552,
      "donations": 8553,
      "Emp": 8554,
      "Wolf": 8555,
      "Wemble": 8556,
      "Boeing": 8557,
      "Heart": 8558,
      "investors": 8559,
      "ylum": 8560,
      "challenging": 8561,
      "intr": 8562,
      "swing": 8563,
      "cannabis": 8564,
      "Unfortunately": 8565,
      "Gh": 8566,
      "Travel": 8567,
      "smiles": 8568,
      "soc": 8569,
      "Wembley": 8570,
      "1992": 8571,
      "Affairs": 8572,
      "dock": 8573,
      "azed": 8574,
      "thed": 8575,
      "install": 8576,
      "isan": 8577,
      "Hond": 8578,
      "pu": 8579,
      "Arth": 8580,
      "elig": 8581,
      "dominated": 8582,
      "dragged": 8583,
      "900": 8584,
      "Seven": 8585,
      "bik": 8586,
      "weighed": 8587,
      "Capital": 8588,
      "igation": 8589,
      "clashes": 8590,
      "sentences": 8591,
      "survivors": 8592,
      "winger": 8593,
      "fright": 8594,
      "Sara": 8595,
      "hearts": 8596,
      "Hamas": 8597,
      "revealing": 8598,
      "Hon": 8599,
      "unemployment": 8600,
      "Ronald": 8601,
      "Douglas": 8602,
      "Ti": 8603,
      "uncle": 8604,
      "globe": 8605,
      "gathering": 8606,
      "Kingdom": 8607,
      "Kirk": 8608,
      "DOWN": 8609,
      "III": 8610,
      "Libyan": 8611,
      "tent": 8612,
      "stim": 8613,
      "lbs": 8614,
      "accidentally": 8615,
      "sting": 8616,
      "returns": 8617,
      "lon": 8618,
      "uct": 8619,
      "illo": 8620,
      "fles": 8621,
      "machines": 8622,
      "analyst": 8623,
      "Somer": 8624,
      "boun": 8625,
      "fence": 8626,
      "boarding": 8627,
      "burns": 8628,
      "toug": 8629,
      "airports": 8630,
      "GA": 8631,
      "column": 8632,
      "subs": 8633,
      "Monaco": 8634,
      "rie": 8635,
      "sured": 8636,
      "scul": 8637,
      "furn": 8638,
      "greg": 8639,
      "itan": 8640,
      "theme": 8641,
      "ulations": 8642,
      "Catherine": 8643,
      "donated": 8644,
      "astructure": 8645,
      "soccer": 8646,
      "Wa": 8647,
      "sued": 8648,
      "Anfield": 8649,
      "Prix": 8650,
      "Thousands": 8651,
      "fundament": 8652,
      "toxic": 8653,
      "Bradley": 8654,
      "wheelchair": 8655,
      "recruit": 8656,
      "prominent": 8657,
      "Claire": 8658,
      "haw": 8659,
      "osex": 8660,
      "hacking": 8661,
      "loose": 8662,
      "hob": 8663,
      "Islands": 8664,
      "slim": 8665,
      "practices": 8666,
      "leans": 8667,
      "swept": 8668,
      "rand": 8669,
      "beck": 8670,
      "collabor": 8671,
      "studied": 8672,
      "tools": 8673,
      "cker": 8674,
      "ums": 8675,
      "chaos": 8676,
      "soil": 8677,
      "Sophie": 8678,
      "Emergency": 8679,
      "extend": 8680,
      "separated": 8681,
      "deserve": 8682,
      "Ca": 8683,
      "Memorial": 8684,
      "Bou": 8685,
      "legacy": 8686,
      "mistakes": 8687,
      "suing": 8688,
      "shaped": 8689,
      "Parker": 8690,
      "Zoo": 8691,
      "Corpor": 8692,
      "dollar": 8693,
      "eller": 8694,
      "appeals": 8695,
      "Sergio": 8696,
      "restr": 8697,
      "liest": 8698,
      "transl": 8699,
      "tan": 8700,
      "Brady": 8701,
      "desk": 8702,
      "ierra": 8703,
      "fault": 8704,
      "pursue": 8705,
      "Cos": 8706,
      "involves": 8707,
      "tout": 8708,
      "diabetes": 8709,
      "Vatic": 8710,
      "eva": 8711,
      "domin": 8712,
      "Assist": 8713,
      "Simpson": 8714,
      "Julie": 8715,
      "Holmes": 8716,
      "Shel": 8717,
      "inth": 8718,
      "frozen": 8719,
      "Stur": 8720,
      "tips": 8721,
      "dles": 8722,
      "obesity": 8723,
      "Shi": 8724,
      "treatments": 8725,
      "Brus": 8726,
      "Carr": 8727,
      "poster": 8728,
      "SCROLL": 8729,
      "1993": 8730,
      "damages": 8731,
      "Network": 8732,
      "Obam": 8733,
      "Tan": 8734,
      "sav": 8735,
      "smiling": 8736,
      "explosive": 8737,
      "bod": 8738,
      "uncertain": 8739,
      "resulting": 8740,
      "requested": 8741,
      "Vladimir": 8742,
      "eter": 8743,
      "chett": 8744,
      "midfield": 8745,
      "climb": 8746,
      "awl": 8747,
      "criticized": 8748,
      "indeed": 8749,
      "crown": 8750,
      "finishing": 8751,
      "Europ": 8752,
      "finds": 8753,
      "institut": 8754,
      "entrepre": 8755,
      "adequ": 8756,
      "courtroom": 8757,
      "Webb": 8758,
      "tops": 8759,
      "slammed": 8760,
      "Vatican": 8761,
      "urban": 8762,
      "bride": 8763,
      "oxy": 8764,
      "PA": 8765,
      "airlines": 8766,
      "stopping": 8767,
      "Control": 8768,
      "profits": 8769,
      "cheese": 8770,
      "shake": 8771,
      "replacement": 8772,
      "champ": 8773,
      "distinct": 8774,
      "nav": 8775,
      "End": 8776,
      "Crit": 8777,
      "Science": 8778,
      "Carlos": 8779,
      "participants": 8780,
      "Soviet": 8781,
      "Lamp": 8782,
      "dev": 8783,
      "appl": 8784,
      "Baker": 8785,
      "pip": 8786,
      "wont": 8787,
      "viously": 8788,
      "tablet": 8789,
      "Fernando": 8790,
      "guidelines": 8791,
      "hafi": 8792,
      "exploded": 8793,
      "Treasury": 8794,
      "cosm": 8795,
      "increases": 8796,
      "unacceptable": 8797,
      "Bark": 8798,
      "Shad": 8799,
      "Bureau": 8800,
      "fu": 8801,
      "pless": 8802,
      "reasonable": 8803,
      "agne": 8804,
      "porn": 8805,
      "literally": 8806,
      "toys": 8807,
      "principal": 8808,
      "Nadal": 8809,
      "Ak": 8810,
      "cable": 8811,
      "engagement": 8812,
      "Arsene": 8813,
      "Pu": 8814,
      "Hannah": 8815,
      "\".": 8816,
      "intervention": 8817,
      "Gadhafi": 8818,
      "embassy": 8819,
      "substance": 8820,
      "Thats": 8821,
      "precedented": 8822,
      "stup": 8823,
      "hoo": 8824,
      "izza": 8825,
      "Carib": 8826,
      "rear": 8827,
      "blocks": 8828,
      "vacation": 8829,
      "Never": 8830,
      "surgeon": 8831,
      "assets": 8832,
      "blings": 8833,
      "thorough": 8834,
      "exposure": 8835,
      "Jill": 8836,
      "Agu": 8837,
      "Lambert": 8838,
      "ignored": 8839,
      "letting": 8840,
      "mentioned": 8841,
      "Larry": 8842,
      "slip": 8843,
      "pole": 8844,
      "starring": 8845,
      "genetic": 8846,
      "triggered": 8847,
      "130": 8848,
      "chant": 8849,
      "describing": 8850,
      "lovely": 8851,
      "sne": 8852,
      "dose": 8853,
      "Turner": 8854,
      "jumping": 8855,
      "mm": 8856,
      "proportion": 8857,
      "Albert": 8858,
      "Lope": 8859,
      "islands": 8860,
      "concrete": 8861,
      "furious": 8862,
      "heroin": 8863,
      "Next": 8864,
      "angle": 8865,
      "brahim": 8866,
      "protecting": 8867,
      "Lionel": 8868,
      "Festival": 8869,
      "enemy": 8870,
      "rensic": 8871,
      "Lopez": 8872,
      "Bour": 8873,
      "humili": 8874,
      "swell": 8875,
      "pride": 8876,
      "organised": 8877,
      "cabin": 8878,
      "oko": 8879,
      "muscle": 8880,
      "maintained": 8881,
      "schedule": 8882,
      "orange": 8883,
      "Sex": 8884,
      "dele": 8885,
      "traction": 8886,
      "Rescue": 8887,
      "suspension": 8888,
      "Nevada": 8889,
      "congressional": 8890,
      "Knox": 8891,
      "architect": 8892,
      "Sierra": 8893,
      "polar": 8894,
      "Prot": 8895,
      "Hero": 8896,
      "kidnapped": 8897,
      "Techn": 8898,
      "destruction": 8899,
      "romantic": 8900,
      "tornado": 8901,
      "underwent": 8902,
      "Kyle": 8903,
      "recall": 8904,
      "relevant": 8905,
      "lifting": 8906,
      "dew": 8907,
      "calcul": 8908,
      "Bent": 8909,
      "tooth": 8910,
      "prayers": 8911,
      "unprecedented": 8912,
      "trading": 8913,
      "Owen": 8914,
      "hopeful": 8915,
      "murders": 8916,
      "Bish": 8917,
      "promises": 8918,
      "ucing": 8919,
      "Wiscons": 8920,
      "Diana": 8921,
      "foundation": 8922,
      "recon": 8923,
      "midnight": 8924,
      "350": 8925,
      "Tower": 8926,
      "asted": 8927,
      "Price": 8928,
      "Media": 8929,
      "demonstrators": 8930,
      "runway": 8931,
      "tower": 8932,
      "cyber": 8933,
      "boasts": 8934,
      "Jav": 8935,
      "Wisconsin": 8936,
      "Crow": 8937,
      "Powell": 8938,
      "explan": 8939,
      "angel": 8940,
      "element": 8941,
      "murdering": 8942,
      "duo": 8943,
      "cub": 8944,
      "Sri": 8945,
      "proposals": 8946,
      "Caribbean": 8947,
      "brands": 8948,
      "athlete": 8949,
      "Dale": 8950,
      "Sent": 8951,
      "stunt": 8952,
      "ogan": 8953,
      "treas": 8954,
      "torial": 8955,
      "Bolton": 8956,
      "covers": 8957,
      "realise": 8958,
      "northeast": 8959,
      "custom": 8960,
      "idal": 8961,
      "bloody": 8962,
      "storms": 8963,
      "wouldnt": 8964,
      "asylum": 8965,
      "Victim": 8966,
      "gifts": 8967,
      "outstanding": 8968,
      "vigil": 8969,
      "gross": 8970,
      "20s": 8971,
      "representatives": 8972,
      "seemingly": 8973,
      "lessly": 8974,
      "impression": 8975,
      "groom": 8976,
      "pledged": 8977,
      "Franco": 8978,
      "encia": 8979,
      "meters": 8980,
      "underground": 8981,
      "infrastructure": 8982,
      "phr": 8983,
      "guess": 8984,
      "tourism": 8985,
      "Brussels": 8986,
      "torm": 8987,
      "chen": 8988,
      "81": 8989,
      "Nov": 8990,
      "warn": 8991,
      "passes": 8992,
      "respondent": 8993,
      "Arthur": 8994,
      "compre": 8995,
      "estimate": 8996,
      "isolated": 8997,
      "fate": 8998,
      "Fle": 8999,
      "Witness": 9000,
      "1990": 9001,
      "enix": 9002,
      "Orland": 9003,
      "Such": 9004,
      "aftermath": 9005,
      "phil": 9006,
      "bunal": 9007,
      "eighth": 9008,
      "iques": 9009,
      "vit": 9010,
      "antha": 9011,
      "Fashion": 9012,
      "boots": 9013,
      "Hollande": 9014,
      "accurate": 9015,
      "Sin": 9016,
      "Lank": 9017,
      "Nancy": 9018,
      "suff": 9019,
      "spy": 9020,
      "1960s": 9021,
      "Light": 9022,
      "alo": 9023,
      "olan": 9024,
      "Brighton": 9025,
      "apologised": 9026,
      "Us": 9027,
      "astronaut": 9028,
      "Tsar": 9029,
      "bane": 9030,
      "button": 9031,
      "Norway": 9032,
      "refusing": 9033,
      "Persie": 9034,
      "desert": 9035,
      "stressed": 9036,
      "Philippines": 9037,
      "Without": 9038,
      "dresses": 9039,
      "delays": 9040,
      "chase": 9041,
      "prestig": 9042,
      "Develop": 9043,
      "migration": 9044,
      "severely": 9045,
      "staggering": 9046,
      "anson": 9047,
      "watches": 9048,
      "savings": 9049,
      "slide": 9050,
      "troubled": 9051,
      "bold": 9052,
      "Freedom": 9053,
      "Vincent": 9054,
      "eved": 9055,
      "cardi": 9056,
      "dumped": 9057,
      "warming": 9058,
      "Pistori": 9059,
      "examined": 9060,
      "assessment": 9061,
      "fixed": 9062,
      "landscape": 9063,
      "ankle": 9064,
      "urging": 9065,
      "uncovered": 9066,
      "campaigns": 9067,
      "launching": 9068,
      "Gare": 9069,
      "oral": 9070,
      "iller": 9071,
      "hostage": 9072,
      "meanwhile": 9073,
      "classified": 9074,
      "Mick": 9075,
      "weekly": 9076,
      "consultant": 9077,
      "Dri": 9078,
      "Were": 9079,
      "Lauren": 9080,
      "undergo": 9081,
      "musical": 9082,
      "Castle": 9083,
      "continent": 9084,
      "Glou": 9085,
      "ication": 9086,
      "colours": 9087,
      "Nearly": 9088,
      "legation": 9089,
      "wooden": 9090,
      "Ibrahim": 9091,
      "Oak": 9092,
      "Blake": 9093,
      "Ukip": 9094,
      "liquid": 9095,
      "thir": 9096,
      "foul": 9097,
      "shes": 9098,
      "idents": 9099,
      "20th": 9100,
      "generations": 9101,
      "remembered": 9102,
      "Sab": 9103,
      "Samantha": 9104,
      "Beng": 9105,
      "iders": 9106,
      "amford": 9107,
      "everyday": 9108,
      "handful": 9109,
      "Vietnam": 9110,
      "AF": 9111,
      "Yan": 9112,
      "Environ": 9113,
      "CL": 9114,
      "Run": 9115,
      "emphas": 9116,
      "holders": 9117,
      "Perhaps": 9118,
      "wanting": 9119,
      "ixon": 9120,
      "Bed": 9121,
      "Later": 9122,
      "Mitt": 9123,
      "Bey": 9124,
      "Phoenix": 9125,
      "Glouce": 9126,
      "theres": 9127,
      "lasted": 9128,
      "Alexand": 9129,
      "CO": 9130,
      "Tories": 9131,
      "elements": 9132,
      "fastest": 9133,
      "revenue": 9134,
      "pure": 9135,
      "competing": 9136,
      "Game": 9137,
      "Anyone": 9138,
      "snapped": 9139,
      "Angela": 9140,
      "erupted": 9141,
      "anxi": 9142,
      "stupid": 9143,
      "haust": 9144,
      "overcome": 9145,
      "Gonz": 9146,
      "autop": 9147,
      "anymore": 9148,
      "partisan": 9149,
      "Embassy": 9150,
      "Dy": 9151,
      "newborn": 9152,
      "Caroline": 9153,
      "Abr": 9154,
      "qualifying": 9155,
      "Weekly": 9156,
      "Cli": 9157,
      "Chair": 9158,
      "limits": 9159,
      "rapidly": 9160,
      "84": 9161,
      "ideal": 9162,
      "whilst": 9163,
      "highway": 9164,
      "Ur": 9165,
      "Marie": 9166,
      "83": 9167,
      "wives": 9168,
      "emor": 9169,
      "Valent": 9170,
      "bacteria": 9171,
      "Grace": 9172,
      "listening": 9173,
      "ieber": 9174,
      "diagnosis": 9175,
      "burglary": 9176,
      "Perez": 9177,
      "Neigh": 9178,
      "convictions": 9179,
      "Son": 9180,
      "challenged": 9181,
      "Orlando": 9182,
      "Kab": 9183,
      "Rud": 9184,
      "stitutes": 9185,
      "affects": 9186,
      "pants": 9187,
      "adjust": 9188,
      "Pistorius": 9189,
      "Tai": 9190,
      "Bale": 9191,
      "stones": 9192,
      "homicide": 9193,
      "visions": 9194,
      "responding": 9195,
      "hydr": 9196,
      "kinson": 9197,
      "hopefully": 9198,
      "memo": 9199,
      "Savile": 9200,
      "implic": 9201,
      "Nicole": 9202,
      "wrest": 9203,
      "recognition": 9204,
      "punched": 9205,
      "forming": 9206,
      "scrut": 9207,
      "comedian": 9208,
      "festive": 9209,
      "Cape": 9210,
      "Pit": 9211,
      "paed": 9212,
      "confronted": 9213,
      "CDC": 9214,
      "whistle": 9215,
      "eases": 9216,
      "Haiti": 9217,
      "Forces": 9218,
      "expenses": 9219,
      "gentle": 9220,
      "random": 9221,
      "una": 9222,
      "arrives": 9223,
      "dealt": 9224,
      "invasion": 9225,
      "Prosecutor": 9226,
      "congrat": 9227,
      "parole": 9228,
      "1989": 9229,
      "refugees": 9230,
      "ateur": 9231,
      "association": 9232,
      "Rh": 9233,
      "meteor": 9234,
      "Global": 9235,
      "igent": 9236,
      "finance": 9237,
      "Sometimes": 9238,
      "Fell": 9239,
      "Gates": 9240,
      "Hop": 9241,
      "eligible": 9242,
      "Dort": 9243,
      "Frances": 9244,
      "Crim": 9245,
      "Somerset": 9246,
      "echo": 9247,
      "sie": 9248,
      "Until": 9249,
      "screening": 9250,
      "Benj": 9251,
      "AP": 9252,
      "Juvent": 9253,
      "instance": 9254,
      "HO": 9255,
      "Liga": 9256,
      "spur": 9257,
      "jer": 9258,
      "organized": 9259,
      "discussions": 9260,
      "satisf": 9261,
      "agen": 9262,
      "lia": 9263,
      "facial": 9264,
      "RAF": 9265,
      "intens": 9266,
      "iverse": 9267,
      "installed": 9268,
      "diving": 9269,
      "agenda": 9270,
      "liver": 9271,
      "bub": 9272,
      "kg": 9273,
      "longest": 9274,
      "):": 9275,
      "Was": 9276,
      "addy": 9277,
      "Juventus": 9278,
      "unidentified": 9279,
      "mall": 9280,
      "lengthy": 9281,
      "Look": 9282,
      "Lan": 9283,
      "documented": 9284,
      "cigarettes": 9285,
      "Herald": 9286,
      "ranging": 9287,
      "nightmare": 9288,
      "iggs": 9289,
      "laughing": 9290,
      "Pellegr": 9291,
      "Econom": 9292,
      "interior": 9293,
      "bye": 9294,
      "privile": 9295,
      "Mohamed": 9296,
      "Dal": 9297,
      "dismiss": 9298,
      "isnt": 9299,
      "siblings": 9300,
      "Columbia": 9301,
      "oning": 9302,
      "sacrif": 9303,
      "smug": 9304,
      "perspect": 9305,
      "hai": 9306,
      "terrifying": 9307,
      "audio": 9308,
      "intimid": 9309,
      "89": 9310,
      "ici": 9311,
      "transition": 9312,
      "olo": 9313,
      "paramedics": 9314,
      "realize": 9315,
      "Cruz": 9316,
      "Gareth": 9317,
      "ilit": 9318,
      "Thatcher": 9319,
      "famously": 9320,
      "category": 9321,
      "initiative": 9322,
      "carto": 9323,
      "Nasa": 9324,
      "statistics": 9325,
      "disappointing": 9326,
      "UEFA": 9327,
      "resent": 9328,
      "golden": 9329,
      "Dortmund": 9330,
      "Cer": 9331,
      "Stri": 9332,
      "suffers": 9333,
      "Bart": 9334,
      "grapher": 9335,
      "bleeding": 9336,
      "1991": 9337,
      "Protection": 9338,
      "Labor": 9339,
      "prompting": 9340,
      "patch": 9341,
      "ranks": 9342,
      "buyers": 9343,
      "taxpayer": 9344,
      "alerted": 9345,
      "secre": 9346,
      "cript": 9347,
      "Orleans": 9348,
      "necessarily": 9349,
      "acres": 9350,
      "selfie": 9351,
      "examination": 9352,
[...]
